{
  "!": 5,
  "!</w>": 1725,
  "\"": 6,
  "\"</w>": 1693,
  "#": 7,
  "#</w>": 1393,
  "$": 8,
  "$</w>": 1927,
  "%": 9,
  "%</w>": 1578,
  "&": 10,
  "&</w>": 1664,
  "'": 11,
  "'</w>": 1571,
  "(": 12,
  "(</w>": 1341,
  ")": 13,
  ")</w>": 1940,
  "*": 14,
  "*</w>": 1881,
  "+": 15,
  "+</w>": 1696,
  ",": 16,
  ",</w>": 1947,
  "-": 17,
  "-</w>": 2574,
  ".": 18,
  ".</w>": 1899,
  "/": 19,
  "/</w>": 1888,
  "0": 20,
  "00": 2108,
  "000": 41714,
  "0000": 30604,
  "0000</w>": 12640,
  "000</w>": 3355,
  "001</w>": 29721,
  "007</w>": 25735,
  "00</w>": 2291,
  "0100</w>": 7759,
  "012": 32316,
  "0126</w>": 43043,
  "012</w>": 2637,
  "014</w>": 23907,
  "015</w>": 49890,
  "017</w>": 47822,
  "018</w>": 16447,
  "01</w>": 2622,
  "0200</w>": 7115,
  "022</w>": 38848,
  "02</w>": 2718,
  "032</w>": 36254,
  "033</w>": 43661,
  "03</w>": 2795,
  "041</w>": 10371,
  "04</w>": 2801,
  "05": 3474,
  "050": 45458,
  "0500</w>": 19545,
  "0501</w>": 7747,
  "0502</w>": 10412,
  "0503</w>": 17397,
  "0504</w>": 16308,
  "0505</w>": 19427,
  "0506</w>": 20108,
  "0507</w>": 21005,
  "0508</w>": 18398,
  "0509</w>": 14148,
  "0510</w>": 33120,
  "0511</w>": 45294,
  "0512</w>": 32930,
  "0513</w>": 35336,
  "058</w>": 37378,
  "05</w>": 2786,
  "06": 3418,
  "0600</w>": 15400,
  "0601</w>": 10399,
  "0602</w>": 10171,
  "0603</w>": 18273,
  "0604</w>": 13001,
  "0605</w>": 19969,
  "0606</w>": 16240,
  "0607</w>": 22703,
  "0608</w>": 19173,
  "0609</w>": 22068,
  "061</w>": 32501,
  "0660</w>": 30874,
  "0662</w>": 48577,
  "0691</w>": 30542,
  "0692</w>": 30339,
  "0693</w>": 33785,
  "0694</w>": 36713,
  "0696</w>": 32020,
  "0698</w>": 46291,
  "06</w>": 2778,
  "07": 16231,
  "0700</w>": 38741,
  "07</w>": 2787,
  "08": 11444,
  "0800</w>": 42371,
  "0880</w>": 42383,
  "0888</w>": 38589,
  "0889</w>": 42143,
  "08</w>": 2732,
  "09": 26685,
  "09</w>": 2664,
  "0</w>": 1053,
  "1": 21,
  "10": 7288,
  "100": 21439,
  "1000</w>": 9231,
  "100</w>": 3486,
  "101</w>": 16168,
  "102</w>": 16483,
  "103</w>": 20036,
  "104</w>": 19302,
  "105": 33222,
  "105</w>": 16311,
  "106": 40298,
  "106</w>": 19098,
  "107</w>": 19662,
  "108</w>": 20993,
  "109</w>": 21284,
  "10</w>": 2293,
  "11": 6748,
  "1100</w>": 32757,
  "110</w>": 12099,
  "111</w>": 16032,
  "1122</w>": 13742,
  "112</w>": 18516,
  "113</w>": 22326,
  "114</w>": 23187,
  "115</w>": 18394,
  "116</w>": 22928,
  "117</w>": 23532,
  "118</w>": 22002,
  "119</w>": 25218,
  "11</w>": 2391,
  "12": 6176,
  "1200</w>": 16700,
  "120</w>": 8286,
  "121</w>": 23480,
  "122</w>": 22365,
  "123</w>": 19049,
  "124</w>": 22969,
  "1250</w>": 37873,
  "125</w>": 15975,
  "126": 16444,
  "126</w>": 17764,
  "126p</w>": 30089,
  "127</w>": 22920,
  "128</w>": 20866,
  "129</w>": 24404,
  "12</w>": 2232,
  "13": 6345,
  "1300</w>": 27348,
  "130</w>": 11761,
  "131</w>": 27021,
  "132</w>": 23553,
  "133</w>": 23658,
  "134</w>": 25450,
  "135</w>": 19722,
  "136</w>": 23256,
  "137</w>": 23957,
  "138</w>": 28136,
  "139</w>": 28021,
  "13</w>": 2537,
  "14": 5981,
  "1400</w>": 30685,
  "140</w>": 13206,
  "141</w>": 28413,
  "142</w>": 27297,
  "143</w>": 30740,
  "144</w>": 22446,
  "145</w>": 23026,
  "146</w>": 31164,
  "147</w>": 28778,
  "148</w>": 28315,
  "149</w>": 31861,
  "14</w>": 2546,
  "15": 5876,
  "1500</w>": 13487,
  "150</w>": 6524,
  "151</w>": 32032,
  "152</w>": 30046,
  "153</w>": 31801,
  "154</w>": 30481,
  "155</w>": 23583,
  "156</w>": 28127,
  "157</w>": 31434,
  "158</w>": 33422,
  "159</w>": 34786,
  "15</w>": 2431,
  "16": 4457,
  "1600</w>": 25709,
  "160</w>": 12731,
  "161</w>": 35348,
  "162</w>": 30813,
  "163</w>": 30149,
  "164</w>": 32413,
  "165</w>": 24546,
  "166</w>": 28627,
  "167</w>": 32510,
  "168</w>": 31208,
  "169</w>": 33628,
  "16</w>": 2555,
  "17": 4395,
  "1700</w>": 36727,
  "170</w>": 14772,
  "171</w>": 30086,
  "172</w>": 32007,
  "173</w>": 33114,
  "174</w>": 32237,
  "175</w>": 21582,
  "176</w>": 30197,
  "177</w>": 30548,
  "178</w>": 29804,
  "179</w>": 28527,
  "17</w>": 2571,
  "18": 3268,
  "1800</w>": 27583,
  "180</w>": 11994,
  "1815</w>": 42312,
  "181</w>": 34356,
  "182</w>": 29879,
  "183</w>": 30567,
  "1848</w>": 47882,
  "184</w>": 31426,
  "185</w>": 24897,
  "1860</w>": 48487,
  "1863</w>": 40087,
  "186</w>": 34297,
  "1870</w>": 48876,
  "187</w>": 27381,
  "188</w>": 26925,
  "1890</w>": 45139,
  "1894</w>": 48981,
  "1895</w>": 43914,
  "1896</w>": 46023,
  "1897</w>": 47984,
  "1898</w>": 44264,
  "1899</w>": 45585,
  "189</w>": 31535,
  "18</w>": 2553,
  "19": 2212,
  "1900</w>": 27385,
  "1901</w>": 40106,
  "1902</w>": 39588,
  "1903</w>": 39351,
  "1904</w>": 36831,
  "1905</w>": 28258,
  "1906</w>": 33973,
  "1907</w>": 33565,
  "1908</w>": 34967,
  "1909</w>": 34980,
  "190</w>": 18736,
  "1910</w>": 28331,
  "1911</w>": 34447,
  "1912</w>": 30641,
  "1913</w>": 33490,
  "1914</w>": 22486,
  "1915</w>": 31517,
  "1916</w>": 34799,
  "1917</w>": 28286,
  "1918</w>": 17426,
  "1919</w>": 20256,
  "191</w>": 34711,
  "1920</w>": 17582,
  "1921</w>": 23841,
  "1922</w>": 24596,
  "1923</w>": 27447,
  "1924</w>": 25939,
  "1925</w>": 25962,
  "1926</w>": 25455,
  "1927</w>": 26822,
  "1928</w>": 24369,
  "1929</w>": 25001,
  "192</w>": 28288,
  "1930</w>": 23919,
  "1931</w>": 26625,
  "1932</w>": 24867,
  "1933</w>": 23767,
  "1934</w>": 23379,
  "1935</w>": 23913,
  "1936</w>": 21595,
  "1937</w>": 22671,
  "1938</w>": 20085,
  "1939</w>": 9858,
  "193</w>": 29905,
  "1940</w>": 17569,
  "1941</w>": 18754,
  "1942</w>": 19240,
  "1943</w>": 18231,
  "1944</w>": 12914,
  "1945</w>": 9792,
  "1946</w>": 17453,
  "1947</w>": 19264,
  "1948</w>": 18528,
  "1949</w>": 20203,
  "194</w>": 32938,
  "1950</w>": 19571,
  "1951</w>": 23493,
  "1952</w>": 20922,
  "1953</w>": 21967,
  "1954</w>": 21518,
  "1955</w>": 23341,
  "1956</w>": 14991,
  "1957</w>": 19407,
  "1958</w>": 21431,
  "1959</w>": 21534,
  "195</w>": 28388,
  "1960</w>": 19588,
  "1961</w>": 22938,
  "1962</w>": 20744,
  "1963</w>": 21660,
  "1964</w>": 20300,
  "1965</w>": 20720,
  "1966</w>": 19742,
  "1967</w>": 19395,
  "1968</w>": 15552,
  "1969</w>": 18578,
  "196</w>": 33290,
  "197": 4769,
  "1970</w>": 16186,
  "1971</w>": 19021,
  "1972</w>": 16662,
  "1973</w>": 16456,
  "1974</w>": 16389,
  "1975</w>": 7613,
  "1976</w>": 14981,
  "1977</w>": 16837,
  "1978</w>": 15466,
  "1979</w>": 15119,
  "197</w>": 35685,
  "198": 3709,
  "1980</w>": 12066,
  "1981</w>": 12460,
  "1982</w>": 13873,
  "1983</w>": 14367,
  "1984</w>": 13935,
  "1985</w>": 13910,
  "1986</w>": 13391,
  "1987</w>": 13708,
  "1988</w>": 11850,
  "1989</w>": 8323,
  "198</w>": 31136,
  "199": 2558,
  "1990</w>": 6390,
  "1991</w>": 8247,
  "1992</w>": 8128,
  "1993</w>": 8066,
  "1994</w>": 7784,
  "1995</w>": 7765,
  "1996</w>": 7582,
  "1997</w>": 6273,
  "1998</w>": 4449,
  "1999</w>": 4159,
  "199</w>": 31932,
  "19</w>": 2618,
  "1</w>": 1029,
  "1a</w>": 33434,
  "1x3</w>": 30906,
  "2": 22,
  "20": 5646,
  "200": 2120,
  "2000</w>": 3450,
  "2001</w>": 3217,
  "2002</w>": 3052,
  "2003</w>": 2940,
  "2004</w>": 2980,
  "2005</w>": 2970,
  "2006</w>": 2908,
  "2007</w>": 2953,
  "2008</w>": 3207,
  "2009</w>": 3539,
  "200</w>": 3820,
  "2010</w>": 9441,
  "2011</w>": 30502,
  "2012</w>": 17401,
  "2013</w>": 29356,
  "201</w>": 26430,
  "202</w>": 32500,
  "203</w>": 23932,
  "204</w>": 32502,
  "205</w>": 29381,
  "206</w>": 26030,
  "207</w>": 33619,
  "208</w>": 33278,
  "209</w>": 39558,
  "20</w>": 2440,
  "21": 42670,
  "210</w>": 20896,
  "211</w>": 28905,
  "212</w>": 32522,
  "213</w>": 31983,
  "214</w>": 35146,
  "215</w>": 26190,
  "216</w>": 34391,
  "217</w>": 34300,
  "218</w>": 38026,
  "219</w>": 41195,
  "21</w>": 2597,
  "22": 11406,
  "220</w>": 16597,
  "221</w>": 35867,
  "222</w>": 30228,
  "223</w>": 37176,
  "224</w>": 39827,
  "225</w>": 27425,
  "226</w>": 37809,
  "227</w>": 32006,
  "228</w>": 39155,
  "229</w>": 43953,
  "22</w>": 2581,
  "23": 10681,
  "230</w>": 18919,
  "231</w>": 36198,
  "232</w>": 34241,
  "233</w>": 32273,
  "234</w>": 35921,
  "235</w>": 31416,
  "236</w>": 38770,
  "237</w>": 34027,
  "238</w>": 36482,
  "239</w>": 40330,
  "23</w>": 2686,
  "24": 12027,
  "240</w>": 17949,
  "241</w>": 42698,
  "242</w>": 39780,
  "243</w>": 39820,
  "244</w>": 37820,
  "245</w>": 36611,
  "246</w>": 39101,
  "247</w>": 40933,
  "248</w>": 40282,
  "249</w>": 38867,
  "24</w>": 2902,
  "25": 11836,
  "2500</w>": 32472,
  "250</w>": 8638,
  "251</w>": 29259,
  "252</w>": 44222,
  "253</w>": 42286,
  "254</w>": 34304,
  "255</w>": 31501,
  "256</w>": 32574,
  "257</w>": 14239,
  "258</w>": 42692,
  "259</w>": 27191,
  "25</w>": 2698,
  "26": 4270,
  "260</w>": 18306,
  "261</w>": 30796,
  "262</w>": 20489,
  "263</w>": 12357,
  "264</w>": 22472,
  "265</w>": 22933,
  "266</w>": 14029,
  "267</w>": 13294,
  "268</w>": 32358,
  "269</w>": 20733,
  "26</w>": 2979,
  "27": 13059,
  "270</w>": 17055,
  "271</w>": 33512,
  "272</w>": 37844,
  "273</w>": 37788,
  "274</w>": 39409,
  "275</w>": 29832,
  "276</w>": 27227,
  "277</w>": 43204,
  "278</w>": 21242,
  "279</w>": 47343,
  "27</w>": 3020,
  "28": 13390,
  "280</w>": 18704,
  "281</w>": 32255,
  "282</w>": 46232,
  "283</w>": 40992,
  "284</w>": 36086,
  "285</w>": 17611,
  "286</w>": 44379,
  "287</w>": 43492,
  "288</w>": 30231,
  "289</w>": 41825,
  "28</w>": 3024,
  "29": 5389,
  "290</w>": 22322,
  "291</w>": 27472,
  "292</w>": 12647,
  "293</w>": 34851,
  "294</w>": 17080,
  "295</w>": 32715,
  "296</w>": 21869,
  "297</w>": 43444,
  "298</w>": 45322,
  "299</w>": 33595,
  "29</w>": 3047,
  "2</w>": 1025,
  "2a</w>": 35115,
  "2x3</w>": 49048,
  "3": 23,
  "30": 15273,
  "300": 48325,
  "3000</w>": 21553,
  "300</w>": 5369,
  "301</w>": 38798,
  "302</w>": 49255,
  "303</w>": 29756,
  "304</w>": 44567,
  "305</w>": 37170,
  "306</w>": 35980,
  "307</w>": 39249,
  "308</w>": 45933,
  "309</w>": 49110,
  "30</w>": 2528,
  "310</w>": 32704,
  "311</w>": 39135,
  "312</w>": 41196,
  "313</w>": 49414,
  "315</w>": 40970,
  "316</w>": 48542,
  "318</w>": 45383,
  "31</w>": 3130,
  "32": 28617,
  "320</w>": 21665,
  "321</w>": 37213,
  "322</w>": 37594,
  "323</w>": 48202,
  "324</w>": 45989,
  "325</w>": 37801,
  "327</w>": 43813,
  "329</w>": 47021,
  "32</w>": 3408,
  "33": 14090,
  "330</w>": 22281,
  "331</w>": 48168,
  "332</w>": 29532,
  "333</w>": 34336,
  "334</w>": 37991,
  "335</w>": 38508,
  "339</w>": 46689,
  "33</w>": 3377,
  "34": 15907,
  "340</w>": 26774,
  "341</w>": 47907,
  "343</w>": 44637,
  "345</w>": 35987,
  "349</w>": 40056,
  "34</w>": 3569,
  "35": 15574,
  "350</w>": 12660,
  "351</w>": 41952,
  "352</w>": 48977,
  "353</w>": 35724,
  "355</w>": 38554,
  "356</w>": 40403,
  "357</w>": 44099,
  "358</w>": 38799,
  "359</w>": 43359,
  "35</w>": 3365,
  "36": 15606,
  "360</w>": 22097,
  "362</w>": 48703,
  "363</w>": 47635,
  "364</w>": 47583,
  "365</w>": 38347,
  "366</w>": 40971,
  "367</w>": 47264,
  "368</w>": 48834,
  "36</w>": 3281,
  "37": 15583,
  "370</w>": 27003,
  "372</w>": 43954,
  "373</w>": 48935,
  "375</w>": 35806,
  "377</w>": 46505,
  "378</w>": 45757,
  "37</w>": 3610,
  "38": 16974,
  "380</w>": 27344,
  "382</w>": 44879,
  "384</w>": 49239,
  "385</w>": 39063,
  "386</w>": 39338,
  "387</w>": 40439,
  "388</w>": 29490,
  "389</w>": 44947,
  "38</w>": 3599,
  "39": 16650,
  "390</w>": 32195,
  "391</w>": 49821,
  "393</w>": 40873,
  "395</w>": 43749,
  "398</w>": 43098,
  "399</w>": 36740,
  "39</w>": 3614,
  "3</w>": 1034,
  "3D</w>": 30492,
  "3a</w>": 46645,
  "4": 24,
  "40": 18551,
  "4000</w>": 35772,
  "400</w>": 6481,
  "402</w>": 43552,
  "404</w>": 38737,
  "405</w>": 38784,
  "406</w>": 34609,
  "409</w>": 49382,
  "40</w>": 2999,
  "410</w>": 23517,
  "411</w>": 15733,
  "412</w>": 16656,
  "413</w>": 14435,
  "414</w>": 31135,
  "415</w>": 17480,
  "416</w>": 23741,
  "417</w>": 29825,
  "418</w>": 20044,
  "419</w>": 36040,
  "41</w>": 3504,
  "42": 25635,
  "420</w>": 22547,
  "421</w>": 12510,
  "422</w>": 12680,
  "423</w>": 14839,
  "424</w>": 40647,
  "425</w>": 15610,
  "426</w>": 19936,
  "427</w>": 24093,
  "428</w>": 27335,
  "429</w>": 13276,
  "42</w>": 3671,
  "43": 26058,
  "430</w>": 16740,
  "431</w>": 17920,
  "432</w>": 24319,
  "433</w>": 30030,
  "435</w>": 46774,
  "437</w>": 44018,
  "439</w>": 41600,
  "43</w>": 3678,
  "44": 17203,
  "440</w>": 31942,
  "442</w>": 49344,
  "443</w>": 38503,
  "444</w>": 34384,
  "447</w>": 44030,
  "44</w>": 3534,
  "45": 19926,
  "450</w>": 15690,
  "451</w>": 29188,
  "45</w>": 3166,
  "46": 25052,
  "460</w>": 33073,
  "461</w>": 47779,
  "46</w>": 3523,
  "47": 20068,
  "470</w>": 39256,
  "472</w>": 47005,
  "47</w>": 3774,
  "48": 20656,
  "480</w>": 31451,
  "484</w>": 46717,
  "48</w>": 3676,
  "49": 21042,
  "490</w>": 45164,
  "49</w>": 3882,
  "4</w>": 1018,
  "4x": 27962,
  "5": 25,
  "50": 14622,
  "5000</w>": 20217,
  "500</w>": 4895,
  "501</w>": 17744,
  "502</w>": 22936,
  "503</w>": 29041,
  "504</w>": 35888,
  "505</w>": 33545,
  "506</w>": 36284,
  "507</w>": 40736,
  "508</w>": 41116,
  "509</w>": 23556,
  "50</w>": 2693,
  "510</w>": 37056,
  "511</w>": 47386,
  "512</w>": 31869,
  "513</w>": 39362,
  "515</w>": 43711,
  "51</w>": 3868,
  "520</w>": 36083,
  "522</w>": 37814,
  "52</w>": 3869,
  "530</w>": 39156,
  "53</w>": 3980,
  "54": 47427,
  "540</w>": 42192,
  "54</w>": 3853,
  "55": 18978,
  "550</w>": 22284,
  "555</w>": 42878,
  "55</w>": 3546,
  "56": 29868,
  "560</w>": 33966,
  "56</w>": 3713,
  "57": 33282,
  "570</w>": 42738,
  "575</w>": 48528,
  "57</w>": 3847,
  "58": 32601,
  "580</w>": 33239,
  "58</w>": 3912,
  "59": 28602,
  "590</w>": 49800,
  "599</w>": 48747,
  "59</w>": 3772,
  "5</w>": 1008,
  "6": 26,
  "60": 20618,
  "600": 49457,
  "6000</w>": 48756,
  "600</w>": 7569,
  "601</w>": 26716,
  "602</w>": 24196,
  "603</w>": 36425,
  "604</w>": 27270,
  "605</w>": 37010,
  "606</w>": 31692,
  "607</w>": 39007,
  "608</w>": 37644,
  "609</w>": 36946,
  "60</w>": 3287,
  "610</w>": 42815,
  "611</w>": 46779,
  "612</w>": 49353,
  "616</w>": 43798,
  "61</w>": 5789,
  "620</w>": 44401,
  "621</w>": 44967,
  "623</w>": 23915,
  "625</w>": 49249,
  "626</w>": 32962,
  "627</w>": 43050,
  "628</w>": 47949,
  "62</w>": 5733,
  "63": 45165,
  "630</w>": 28670,
  "631</w>": 18014,
  "632</w>": 13089,
  "633</w>": 13125,
  "634</w>": 18750,
  "635</w>": 26299,
  "636</w>": 14158,
  "637</w>": 17334,
  "638</w>": 16185,
  "63</w>": 5783,
  "64": 44400,
  "640</w>": 27611,
  "641</w>": 29743,
  "642</w>": 25254,
  "643</w>": 24187,
  "644</w>": 16672,
  "645</w>": 25504,
  "647</w>": 20214,
  "648</w>": 20658,
  "649</w>": 25645,
  "64</w>": 5859,
  "65": 23485,
  "650</w>": 18671,
  "653</w>": 30213,
  "654</w>": 20441,
  "655</w>": 17208,
  "656</w>": 13502,
  "657</w>": 25967,
  "658</w>": 20626,
  "659</w>": 31539,
  "65</w>": 4858,
  "66": 19808,
  "660</w>": 36142,
  "661</w>": 42780,
  "665</w>": 42758,
  "666</w>": 19539,
  "668</w>": 48993,
  "66</w>": 5324,
  "67": 33979,
  "670</w>": 49383,
  "675</w>": 46539,
  "67</w>": 5976,
  "68": 36151,
  "680</w>": 26037,
  "681</w>": 27942,
  "684</w>": 38273,
  "685</w>": 38579,
  "68</w>": 5536,
  "69": 20641,
  "690</w>": 48914,
  "693</w>": 40520,
  "694</w>": 47724,
  "698</w>": 49458,
  "69</w>": 6084,
  "6</w>": 1036,
  "7": 27,
  "70": 35858,
  "700</w>": 8788,
  "70</w>": 3530,
  "71</w>": 6429,
  "720</w>": 40554,
  "72</w>": 5847,
  "73</w>": 6441,
  "74": 48852,
  "74</w>": 6420,
  "75": 24542,
  "750</w>": 18289,
  "75</w>": 3940,
  "76": 26505,
  "760</w>": 37542,
  "76</w>": 6069,
  "77": 21847,
  "770</w>": 45188,
  "777</w>": 36116,
  "77</w>": 5663,
  "78": 31076,
  "78</w>": 5879,
  "79": 26071,
  "79</w>": 6871,
  "7</w>": 1030,
  "8": 28,
  "80": 29189,
  "800</w>": 7929,
  "807</w>": 49741,
  "80</w>": 3477,
  "81</w>": 6152,
  "820</w>": 49680,
  "82</w>": 6315,
  "83</w>": 6108,
  "840</w>": 48924,
  "84</w>": 6139,
  "85": 26532,
  "850</w>": 29720,
  "85</w>": 5053,
  "86": 29028,
  "860</w>": 45460,
  "86</w>": 6000,
  "87": 34605,
  "87</w>": 6245,
  "88": 9531,
  "880</w>": 45274,
  "8859</w>": 12924,
  "888</w>": 31811,
  "889</w>": 48651,
  "88</w>": 5169,
  "89": 25824,
  "89</w>": 6062,
  "8</w>": 1064,
  "9": 29,
  "90": 33236,
  "9000</w>": 49610,
  "900</w>": 12747,
  "90</w>": 3956,
  "91</w>": 6282,
  "92</w>": 6471,
  "930</w>": 46396,
  "93</w>": 6955,
  "94</w>": 6898,
  "95": 43789,
  "950</w>": 37291,
  "95</w>": 6368,
  "960</w>": 47839,
  "96</w>": 7189,
  "97": 41288,
  "97</w>": 7152,
  "98": 40392,
  "98</w>": 7177,
  "99": 22978,
  "997</w>": 27271,
  "999</w>": 31884,
  "99</w>": 5966,
  "9</w>": 1017,
  ":": 30,
  ":</w>": 1335,
  ";": 31,
  ";</w>": 1195,
  "<": 32,
  "</s>": 2,
  "<</w>": 1841,
  "<mask>": 4,
  "<pad>": 1,
  "<s>": 0,
  "<unk>": 3,
  "=": 33,
  "=</w>": 1789,
  ">": 34,
  "></w>": 1922,
  "?": 35,
  "?</w>": 1550,
  "@": 36,
  "@</w>": 1975,
  "A": 37,
  "A1</w>": 45175,
  "A2</w>": 42200,
  "A4</w>": 34903,
  "A</w>": 1012,
  "AA</w>": 35864,
  "AB": 11945,
  "AB</w>": 34572,
  "ABC</w>": 34425,
  "ABS</w>": 39744,
  "ABW</w>": 41490,
  "AC</w>": 22477,
  "AD": 20632,
  "AD</w>": 35730,
  "ADA": 44982,
  "AE</w>": 42485,
  "AF</w>": 28935,
  "AG": 7286,
  "AG</w>": 35430,
  "AGA</w>": 25892,
  "AGD</w>": 31543,
  "AGEN": 37087,
  "AGENCJA</w>": 41749,
  "AGH</w>": 23984,
  "AGNIE": 30083,
  "AGNIESZKA</w>": 30573,
  "AI": 19093,
  "AIDS</w>": 28451,
  "AJ</w>": 43310,
  "AK": 33223,
  "AK</w>": 7091,
  "AKS</w>": 30918,
  "AL": 5618,
  "AL</w>": 28078,
  "ALA": 26599,
  "ALA</w>": 34932,
  "ALAR": 31163,
  "ALARMY</w>": 49549,
  "ALE": 38409,
  "ALE</w>": 31682,
  "ALG</w>": 26180,
  "ALI": 40767,
  "ALU": 28051,
  "AM": 28164,
  "AM</w>": 14609,
  "AN": 4219,
  "AN</w>": 15391,
  "ANA</w>": 19650,
  "AND": 14960,
  "AND</w>": 39049,
  "ANDRZE": 21179,
  "ANDRZEJ</w>": 22536,
  "ANGIE": 30187,
  "ANGIELSKI</w>": 31271,
  "ANI</w>": 43170,
  "ANKA</w>": 23642,
  "ANNA</w>": 28874,
  "ANS</w>": 44123,
  "ANTE": 35757,
  "ANTENY</w>": 43660,
  "ANTY": 33487,
  "ANY</w>": 25608,
  "ANÓW</w>": 22739,
  "AP": 31469,
  "AP</w>": 38181,
  "APAR": 41439,
  "APARTA": 46317,
  "APR</w>": 44624,
  "APTEKA</w>": 43878,
  "AR": 3193,
  "AR</w>": 18460,
  "ARD</w>": 47902,
  "ARE</w>": 43756,
  "ARKA</w>": 29963,
  "ARS</w>": 35496,
  "ART</w>": 41258,
  "ARZ</w>": 41993,
  "ARZY": 30562,
  "ARi": 48903,
  "ARiMR</w>": 49208,
  "AS": 38000,
  "AS</w>": 15039,
  "ASP</w>": 27827,
  "AST": 39876,
  "ASZ</w>": 37845,
  "AT": 4352,
  "AT</w>": 7450,
  "ATA</w>": 19928,
  "ATP</w>": 43056,
  "ATRAK": 24114,
  "ATRAKCYJ": 24338,
  "ATRAKCYJNE</w>": 32849,
  "AU": 10304,
  "AUTO": 13551,
  "AUTOGAZ</w>": 25121,
  "AW": 5033,
  "AW</w>": 22728,
  "AWA</w>": 21549,
  "AWF</w>": 11644,
  "AWI": 21819,
  "AWS</w>": 10540,
  "AZS</w>": 6716,
  "Aa": 47870,
  "Ab": 9763,
  "Abra": 26066,
  "Abram": 38800,
  "Abso": 16014,
  "Absolu": 27841,
  "Absolutnie</w>": 37607,
  "Absolwen": 23896,
  "Absolwent</w>": 42370,
  "Aby</w>": 7231,
  "Ac": 18377,
  "Ach</w>": 3159,
  "Ad": 5771,
  "Ad</w>": 47960,
  "Ada": 3385,
  "Adam": 7767,
  "Adam</w>": 4376,
  "Adama</w>": 9279,
  "Adamczyk</w>": 18659,
  "Adamem</w>": 33564,
  "Adamowi</w>": 47618,
  "Adams</w>": 29853,
  "Adamski</w>": 27920,
  "Adamt</w>": 44751,
  "Adamus</w>": 40199,
  "Ade": 38983,
  "Administra": 9990,
  "Administracji</w>": 15816,
  "Administracyjnego</w>": 32455,
  "Ado": 21770,
  "Adolf</w>": 41356,
  "Adonai</w>": 26870,
  "Adre": 25605,
  "Adres</w>": 35666,
  "Adri": 10596,
  "Adrian</w>": 14305,
  "Adriana</w>": 35833,
  "Adwoka": 41132,
  "Ae": 46650,
  "Aero": 36263,
  "Af": 14721,
  "Afgani": 21004,
  "Afganistanie</w>": 33329,
  "Afganistanu</w>": 44154,
  "Afry": 11132,
  "Afryce</w>": 24411,
  "Afryki</w>": 18670,
  "Ag": 8624,
  "Aga": 26497,
  "Aga</w>": 32377,
  "Agata</w>": 12580,
  "Agaty</w>": 47439,
  "Agen": 6749,
  "Agencja</w>": 13485,
  "Agencji</w>": 10575,
  "Agencję</w>": 35285,
  "Agnie": 5734,
  "Agnieszka</w>": 6443,
  "Agnieszki</w>": 23497,
  "Agnieszkę</w>": 47248,
  "Agro": 27221,
  "Ah": 43894,
  "Aha</w>": 35661,
  "Aho": 39359,
  "Ahonen</w>": 49476,
  "Ai": 12762,
  "Aicha</w>": 30965,
  "Air": 32913,
  "Air</w>": 34415,
  "Aires</w>": 43676,
  "Aj": 33967,
  "Aja": 46088,
  "Ak": 19825,
  "Akade": 5829,
  "Akademi": 23181,
  "Akademia</w>": 18318,
  "Akademii</w>": 7362,
  "Akademię</w>": 34898,
  "Akcja</w>": 12482,
  "Akcje</w>": 43944,
  "Akcji</w>": 18432,
  "Akcję</w>": 33498,
  "Akt</w>": 32353,
  "Aktu": 17856,
  "Aktualnie</w>": 25963,
  "Aktyw": 28337,
  "Akurat</w>": 33307,
  "Akwi": 32512,
  "Al": 3547,
  "Al</w>": 17191,
  "Ala": 24841,
  "Alba": 23385,
  "Alber": 26842,
  "Albert</w>": 22456,
  "Alberta</w>": 27997,
  "Albin": 37611,
  "Albinos</w>": 45058,
  "Albo</w>": 13607,
  "Albu": 26817,
  "Album</w>": 37183,
  "Aldona</w>": 48454,
  "Ale": 8122,
  "Ale</w>": 2894,
  "Alek": 29174,
  "Aleks": 4962,
  "Aleksand": 6535,
  "Aleksander</w>": 8269,
  "Aleksandra</w>": 8186,
  "Aleksandry</w>": 45965,
  "Alex": 15343,
  "Alex</w>": 36085,
  "Alexbot</w>": 25014,
  "Ależ</w>": 30407,
  "Alf": 42000,
  "Alfa</w>": 40183,
  "Alfons</w>": 47316,
  "Alfre": 22690,
  "Alfred</w>": 32288,
  "Alfreda</w>": 46940,
  "Algie": 46805,
  "Ali": 9674,
  "Ali</w>": 41877,
  "Alicja</w>": 14303,
  "Alicji</w>": 44369,
  "Alina</w>": 27389,
  "Alko": 23978,
  "Alkohol": 40322,
  "Alkoholowych</w>": 43203,
  "All": 30801,
  "All</w>": 37831,
  "Alle": 33269,
  "AlleborgoBot</w>": 41425,
  "Allegro</w>": 37426,
  "Allgau</w>": 47077,
  "Alli": 29604,
  "Allianz</w>": 41232,
  "Alo": 33096,
  "AlohaBOT</w>": 44946,
  "Aloj": 32756,
  "Alojzy</w>": 43037,
  "Alpy</w>": 27352,
  "Alterna": 34465,
  "Alu": 23011,
  "Aluminium</w>": 29298,
  "Alwer": 17201,
  "Alwerni</w>": 30638,
  "Alwernia</w>": 27593,
  "Am": 7985,
  "Ama": 15873,
  "Ambasad": 31220,
  "Ambi": 43000,
  "Ame": 48060,
  "Amer": 22103,
  "American</w>": 31722,
  "Amery": 6921,
  "Ameryce</w>": 16450,
  "Ameryka": 8769,
  "Ameryka</w>": 30602,
  "Amerykan": 26699,
  "Amerykanie</w>": 15760,
  "Amerykanin</w>": 28026,
  "Amerykanów</w>": 21864,
  "Amerykański</w>": 43398,
  "Ameryki</w>": 14006,
  "Ami": 13937,
  "Amica</w>": 24697,
  "Amiki</w>": 36000,
  "Amne": 30571,
  "Amster": 29508,
  "An": 2475,
  "An</w>": 49793,
  "Ana": 11157,
  "Anali": 21362,
  "Analiz": 33550,
  "Analiza</w>": 32067,
  "Anato": 25552,
  "Anatol</w>": 40238,
  "And": 24614,
  "Ander": 14514,
  "Andersa</w>": 42297,
  "Andr": 28235,
  "Andre": 13877,
  "Andre</w>": 44852,
  "Andreas</w>": 28655,
  "Andrew</w>": 45003,
  "Andriej</w>": 49622,
  "Andro": 45156,
  "Andru": 41979,
  "Andry": 12466,
  "Andrychowa</w>": 36651,
  "Andrychowie</w>": 26588,
  "Andrychów</w>": 24393,
  "Andrze": 3094,
  "Andrzej": 42366,
  "Andrzej</w>": 3415,
  "Andrzeja</w>": 6934,
  "Andrzejem</w>": 22379,
  "Andrzejewski</w>": 34417,
  "Andrzejowi</w>": 32976,
  "Andy</w>": 35116,
  "Ane": 13460,
  "Aneta</w>": 18077,
  "Ange": 10811,
  "Angel</w>": 28682,
  "Angeles</w>": 21271,
  "Angelika</w>": 38288,
  "Angiel": 40719,
  "Angli": 7285,
  "Anglia</w>": 24726,
  "Anglicy</w>": 30982,
  "Anglii</w>": 11006,
  "Anglików</w>": 43596,
  "Ani": 13801,
  "Ani</w>": 14347,
  "Ania</w>": 12856,
  "Anie": 30449,
  "Anio": 20189,
  "Anioł</w>": 32466,
  "Anita</w>": 31961,
  "Anka</w>": 42679,
  "Anna</w>": 4716,
  "Annie</w>": 39846,
  "Anny</w>": 13080,
  "Anną</w>": 38656,
  "Annę</w>": 28822,
  "Ano": 37633,
  "Ano</w>": 41179,
  "Ant": 8553,
  "Antek</w>": 49044,
  "Anth": 42411,
  "Anti": 38008,
  "Anto": 8306,
  "Antoni</w>": 9793,
  "Antoniego</w>": 16851,
  "Antonio</w>": 24703,
  "Anty": 19317,
  "Anu": 37440,
  "Ap": 13109,
  "Apa": 37447,
  "Apara": 41076,
  "Ape": 36556,
  "Apel": 43324,
  "Apel</w>": 37928,
  "Apela": 23647,
  "Apelacyjny</w>": 44620,
  "Apol": 31410,
  "Apollo</w>": 47113,
  "Aposto": 20512,
  "Apple</w>": 44574,
  "Apr</w>": 21282,
  "Aqu": 34882,
  "Ar": 2921,
  "Ara": 17066,
  "Arab": 38462,
  "Arabi": 48622,
  "Arbi": 45233,
  "Arche": 28636,
  "Archi": 10034,
  "Archite": 19151,
  "Architektury</w>": 30020,
  "Archiwum</w>": 21780,
  "Arcy": 36230,
  "Are": 22698,
  "Arek</w>": 29374,
  "Arena</w>": 47271,
  "Aresz": 32629,
  "Argen": 14470,
  "Argenty": 24318,
  "Argentyna</w>": 32933,
  "Argentyny</w>": 42117,
  "Argu": 27504,
  "Ari": 23045,
  "Arka": 8887,
  "Arka</w>": 20236,
  "Arkadi": 9579,
  "Arkadiusz</w>": 10924,
  "Arkadiusza</w>": 35799,
  "Arki</w>": 38302,
  "Arm": 44274,
  "Arma": 36979,
  "Armatura</w>": 46402,
  "Arme": 34485,
  "Armia</w>": 29623,
  "Armii</w>": 12063,
  "Arno": 42768,
  "Arsena": 22308,
  "Arsenal</w>": 34283,
  "Art</w>": 12182,
  "Arth": 26125,
  "Arthur": 38865,
  "ArthurBot</w>": 39096,
  "Artu": 33602,
  "Artur</w>": 7070,
  "Artura</w>": 21538,
  "Arty": 8771,
  "Artyku": 19999,
  "Artykuł</w>": 26321,
  "Artysta</w>": 33326,
  "Artystów</w>": 49094,
  "Artyści</w>": 37417,
  "Ary": 37518,
  "Arysto": 44117,
  "As": 18159,
  "Asasello</w>": 19377,
  "Asia": 39239,
  "Asia</w>": 24275,
  "AsiaS</w>": 47144,
  "Asso": 42950,
  "Astec</w>": 44096,
  "Astra</w>": 34661,
  "Asy": 32928,
  "At": 8968,
  "At</w>": 37033,
  "Ata": 33714,
  "Atak</w>": 41986,
  "Ate": 15631,
  "Aten</w>": 42932,
  "Atenach</w>": 26232,
  "Ateny</w>": 37019,
  "Ath": 42622,
  "Atlan": 15483,
  "Atlanta</w>": 48745,
  "Atlanty": 37651,
  "Atlas</w>": 30483,
  "Atmos": 35856,
  "Atmosfera</w>": 40998,
  "Atra": 21398,
  "Atu": 47878,
  "Au": 3436,
  "Aud": 36725,
  "Audi</w>": 42359,
  "Aug</w>": 20713,
  "Augu": 9266,
  "August</w>": 34288,
  "Augusta</w>": 28500,
  "Augusty": 31658,
  "Augustyn</w>": 23481,
  "Augustyna</w>": 47828,
  "Aus": 19140,
  "Auschwitz</w>": 19971,
  "Aust": 11966,
  "Austra": 10804,
  "Australi": 21187,
  "Australia</w>": 27893,
  "Australii</w>": 19031,
  "Austri": 10267,
  "Austria": 21491,
  "Austria</w>": 17703,
  "Austriacy</w>": 44712,
  "Austriak</w>": 44394,
  "Austrii</w>": 13078,
  "Aut": 11598,
  "Auta</w>": 43902,
  "Auto": 9845,
  "Auto</w>": 17554,
  "Autobu": 24763,
  "Autobus</w>": 46962,
  "Autobusy</w>": 44105,
  "Autonomi": 41134,
  "Autor</w>": 14970,
  "Autorem</w>": 38046,
  "Autorka</w>": 41336,
  "Autorzy</w>": 24326,
  "Autostra": 25047,
  "Autostrad</w>": 28498,
  "Av": 41869,
  "Avi": 46821,
  "Awan": 18039,
  "Awans</w>": 26098,
  "Awar": 23282,
  "Awi": 38990,
  "Az": 15385,
  "Azer": 30180,
  "Azerbej": 34267,
  "Azerbejdż": 34875,
  "Azji</w>": 17490,
  "Azor</w>": 10615,
  "Azoty</w>": 44395,
  "AŁ": 12372,
  "AŁ</w>": 20901,
  "AŁA</w>": 34689,
  "Ał": 41837,
  "AŻ": 48591,
  "Aż</w>": 12629,
  "B": 38,
  "B1</w>": 37862,
  "B3": 33324,
  "B3</w>": 29869,
  "B</w>": 1065,
  "BA": 9590,
  "BA</w>": 10397,
  "BAG": 42938,
  "BAGAŻ": 49390,
  "BAN": 37579,
  "BAR": 11677,
  "BAR</w>": 43387,
  "BARBAR": 49718,
  "BARTO": 44618,
  "BAT</w>": 37589,
  "BB": 19091,
  "BB</w>": 45286,
  "BBC</w>": 35392,
  "BBWR</w>": 46692,
  "BC</w>": 31411,
  "BD</w>": 48318,
  "BE": 9200,
  "BER": 25180,
  "BES</w>": 41459,
  "BEZ": 26378,
  "BEZ</w>": 27595,
  "BF": 32414,
  "BG": 38217,
  "BGŻ</w>": 40411,
  "BH</w>": 25244,
  "BI": 6664,
  "BI</w>": 32458,
  "BIA": 46224,
  "BIE": 13055,
  "BIE</w>": 34040,
  "BIEL": 41314,
  "BIEŻ": 47353,
  "BIG</w>": 37621,
  "BIK</w>": 44425,
  "BIUR": 24445,
  "BIURO</w>": 32578,
  "BK</w>": 12982,
  "BKS</w>": 21030,
  "BLE</w>": 44022,
  "BLI": 29813,
  "BM</w>": 27082,
  "BMW</w>": 23634,
  "BN</w>": 21182,
  "BO": 6118,
  "BO</w>": 44387,
  "BOCHNIA</w>": 38472,
  "BOG": 37407,
  "BOLE": 49223,
  "BOR": 31092,
  "BOR</w>": 46091,
  "BOT</w>": 17110,
  "BOŻ</w>": 48186,
  "BP</w>": 10370,
  "BPH</w>": 33384,
  "BR": 22897,
  "BRA": 21263,
  "BRE</w>": 46597,
  "BRO": 23249,
  "BRON": 40947,
  "BRU": 24455,
  "BRUKAR": 27383,
  "BRUKARSTWO</w>": 37901,
  "BRZE": 26856,
  "BRZY": 44398,
  "BS</w>": 14487,
  "BT</w>": 47410,
  "BU": 11231,
  "BUD": 31597,
  "BUDOW": 46851,
  "BUDOWA</w>": 45213,
  "BY": 20977,
  "BY</w>": 25287,
  "Ba": 2971,
  "Ba</w>": 32228,
  "Bab": 22136,
  "Babcia</w>": 32927,
  "Babi": 13048,
  "Babia</w>": 39329,
  "Bacha</w>": 30460,
  "Bachle": 25382,
  "Bachleda</w>": 30667,
  "Bad": 9317,
  "Bad</w>": 38623,
  "Bada": 19224,
  "Badania</w>": 14531,
  "Badanie</w>": 27592,
  "Badań</w>": 24102,
  "Bag": 26009,
  "Bagi": 47607,
  "Baj": 15454,
  "Bak": 36228,
  "Bal": 7866,
  "Bal</w>": 36489,
  "Balcer": 19094,
  "Balcerowicz</w>": 31697,
  "Balcerowicza</w>": 34777,
  "Bali": 12792,
  "Balicach</w>": 42339,
  "Ban": 4770,
  "Bana": 15204,
  "Banach</w>": 41218,
  "Banaś</w>": 38537,
  "Band</w>": 29792,
  "Bandy": 43366,
  "Bania</w>": 46377,
  "Bank</w>": 8645,
  "Banki</w>": 39311,
  "Bankiem</w>": 48744,
  "Banku</w>": 9507,
  "Bar": 2973,
  "Bar</w>": 39253,
  "Bara": 7737,
  "Baran": 45754,
  "Baran</w>": 14510,
  "Baranami</w>": 41512,
  "Baranowski</w>": 39225,
  "Barba": 32677,
  "Barbar": 6824,
  "Barbara</w>": 7944,
  "Barbary</w>": 21997,
  "Barbarę</w>": 48685,
  "Barce": 19874,
  "Barcel": 31900,
  "Barcelona</w>": 27158,
  "Barcelonie</w>": 38963,
  "Barcelony</w>": 40885,
  "Barci": 34056,
  "Bardziej</w>": 22531,
  "Bardzo</w>": 5162,
  "Bart": 6479,
  "Bartek</w>": 18735,
  "Barto": 14215,
  "Bartosz</w>": 10916,
  "Bartosza</w>": 43381,
  "Bartło": 11765,
  "Bartłomiej</w>": 13420,
  "Bartłomieja</w>": 43308,
  "Bary": 32322,
  "Bas": 45466,
  "Basia</w>": 15798,
  "Bask": 27382,
  "Basket</w>": 35591,
  "Basz": 29811,
  "Baszczyński</w>": 42267,
  "Bat": 14203,
  "Batali": 35204,
  "Bato": 28404,
  "Batorego</w>": 29634,
  "Bau": 24438,
  "Bawar": 26986,
  "Bawarii</w>": 37842,
  "Bay": 16227,
  "Bay</w>": 41470,
  "Bayer": 23391,
  "Bayer</w>": 41395,
  "Bayern</w>": 34038,
  "Bazy": 20195,
  "Bazyl</w>": 28375,
  "Bazyli": 26693,
  "Bał": 9521,
  "Bała</w>": 46127,
  "Bałty": 13437,
  "Bałtyckiego</w>": 31949,
  "Bałtyk</w>": 41729,
  "Bałtyku</w>": 29679,
  "Bału": 32737,
  "Bań": 42818,
  "Be": 2782,
  "Be</w>": 49611,
  "BeR</w>": 27487,
  "Bean</w>": 29030,
  "Beat": 43584,
  "Beata</w>": 10114,
  "Beaty</w>": 40150,
  "Beau": 45312,
  "Beau</w>": 26295,
  "Beck": 36405,
  "Bed": 13093,
  "Bedna": 36648,
  "Bednar": 16475,
  "Bednarczyk</w>": 32497,
  "Bednarek</w>": 44092,
  "Bednarz</w>": 34023,
  "Been": 43139,
  "Beenhak": 44121,
  "Beet": 39884,
  "Beetho": 41212,
  "Bel": 7332,
  "Belgia</w>": 31779,
  "Belgii</w>": 19832,
  "Belgra": 30319,
  "Belka</w>": 43351,
  "Belki</w>": 47068,
  "Belwe": 46871,
  "Ben": 11775,
  "Ben</w>": 44437,
  "Bene": 13287,
  "Benedy": 17306,
  "Benedykt</w>": 27825,
  "Benedykta</w>": 34719,
  "Benia": 37107,
  "Benja": 47958,
  "Ber": 5089,
  "Bere": 25656,
  "Berg": 45066,
  "Beri": 43873,
  "Berials</w>": 47055,
  "Berlin</w>": 25907,
  "Berlina</w>": 25257,
  "Berlinie</w>": 17501,
  "Berna": 46202,
  "Bernade": 45574,
  "Bernar": 15112,
  "Bernard</w>": 21511,
  "Beski": 8657,
  "Beskid</w>": 21459,
  "Beskidu</w>": 36702,
  "Beskidy</w>": 37505,
  "Beskidzie</w>": 49998,
  "Beskidzka</w>": 40673,
  "Beskidzkiej</w>": 23953,
  "Best</w>": 49542,
  "Betle": 31395,
  "Betlejem</w>": 47341,
  "Bez": 6237,
  "Bez</w>": 6925,
  "Bezdom": 42309,
  "Bezpie": 9798,
  "Bezpieczeństwa</w>": 14465,
  "Bezpieczeństwo</w>": 46010,
  "Bezpieczne</w>": 44256,
  "Bezrobot": 37017,
  "Beł": 35344,
  "Bełch": 12650,
  "Bełchat": 21558,
  "Bełchatowa</w>": 44619,
  "Bełchatowie</w>": 35582,
  "Bełchatów</w>": 18240,
  "Bi": 2785,
  "Biał": 4532,
  "Biała</w>": 13317,
  "Białego": 32431,
  "Białego</w>": 25930,
  "Białegostoku</w>": 32527,
  "Białej</w>": 11094,
  "Białek</w>": 37029,
  "Białka</w>": 36450,
  "Biało": 47018,
  "Biało</w>": 44857,
  "Białoru": 9908,
  "Białorusi": 37088,
  "Białorusi</w>": 16361,
  "Białoruś</w>": 25889,
  "Białosto": 47397,
  "Białowie": 41874,
  "Biały</w>": 17682,
  "Białym": 22351,
  "Białym</w>": 34278,
  "Białymstoku</w>": 22879,
  "Białystok</w>": 23125,
  "Bibli": 17427,
  "Biblia</w>": 49587,
  "Biblii</w>": 31024,
  "Bibliote": 9699,
  "Bibliotece</w>": 28687,
  "Biblioteka</w>": 20774,
  "Biblioteki</w>": 17788,
  "Bie": 2339,
  "Biecz</w>": 49604,
  "Bieda</w>": 48743,
  "Biedro": 37640,
  "Bieg</w>": 26445,
  "Biego": 46928,
  "Biel": 8608,
  "Biela": 19479,
  "Biela</w>": 46137,
  "Bielecki</w>": 40255,
  "Bielska</w>": 22610,
  "Bielsko</w>": 18526,
  "Bielsku</w>": 19543,
  "Bier": 18192,
  "Biernacki</w>": 38363,
  "Biernat</w>": 49262,
  "Bieru": 32342,
  "Bieszcz": 21441,
  "Bieszcza": 39016,
  "Bieszczadach</w>": 44350,
  "Bieszczady</w>": 33845,
  "Bień": 46090,
  "Bieżan": 24527,
  "Big</w>": 25444,
  "Bil": 16555,
  "Bilans</w>": 46080,
  "Bilet</w>": 44063,
  "Bilety</w>": 19419,
  "Bill</w>": 38772,
  "Billy</w>": 24321,
  "Bin": 48629,
  "Bio": 40120,
  "Bior": 19865,
  "Biorąc</w>": 24906,
  "Bir": 16556,
  "Birke": 35665,
  "Birkenau</w>": 36021,
  "Birmin": 46781,
  "Birmingham</w>": 48087,
  "Bisku": 25925,
  "Biskup</w>": 29845,
  "Biskupi": 30391,
  "Bitwa</w>": 28030,
  "Biu": 24655,
  "Biule": 46892,
  "Biura</w>": 11203,
  "Biuro</w>": 12831,
  "Biurze</w>": 30733,
  "Bizan": 47762,
  "Bizne": 19309,
  "Biznes</w>": 48502,
  "Biznesu</w>": 29400,
  "Bla": 10140,
  "Black": 28936,
  "Black</w>": 31767,
  "Blan": 32680,
  "Blanka</w>": 42924,
  "Ble": 35521,
  "Bli": 9989,
  "Bliskim</w>": 46574,
  "Blisko</w>": 23901,
  "Bliżej</w>": 42230,
  "Blo": 16256,
  "Blok</w>": 41813,
  "Blu": 13491,
  "Blue</w>": 25063,
  "Blues</w>": 36659,
  "Bo": 2758,
  "Bo</w>": 5075,
  "BoT</w>": 18225,
  "Bob": 10999,
  "Bob</w>": 48210,
  "Bober</w>": 48021,
  "Bobowa</w>": 42151,
  "Boch": 8718,
  "Boche": 16145,
  "Bochenek</w>": 30719,
  "Bocheński</w>": 41932,
  "Bochni</w>": 13430,
  "Bochnia</w>": 18987,
  "Boci": 39302,
  "Bod": 30154,
  "Bodzi": 43683,
  "Bodziony</w>": 36343,
  "Bog": 3721,
  "Boga": 25729,
  "Boga</w>": 8751,
  "Bogacz</w>": 43915,
  "Bogda": 44894,
  "Bogdan": 33363,
  "Bogdan</w>": 9473,
  "Bogdana</w>": 25095,
  "Bogiem</w>": 24049,
  "Bogu": 6877,
  "Bogu</w>": 16828,
  "Bogumił</w>": 44079,
  "Bogumiła</w>": 34942,
  "Bogusz</w>": 42759,
  "Bogusław</w>": 11420,
  "Bogusława</w>": 21817,
  "Boh": 24617,
  "Boha": 15758,
  "Bohater</w>": 49252,
  "Bohaterem</w>": 49303,
  "Bohaterów</w>": 38048,
  "Bohdan</w>": 39910,
  "Boi": 35133,
  "Boisko</w>": 49964,
  "Boj": 21722,
  "Bojan": 43463,
  "Bojarski</w>": 45543,
  "Boję</w>": 41623,
  "Bol": 16027,
  "Bole": 8327,
  "Bolesław": 45056,
  "Bolesław</w>": 14755,
  "Bolesława</w>": 22162,
  "Boli": 40480,
  "Bom": 48248,
  "Bomba</w>": 44698,
  "Bon": 16771,
  "Bona": 39177,
  "Boni": 40427,
  "Bor": 6424,
  "Bora": 41515,
  "Borde": 42494,
  "Bordeaux</w>": 44286,
  "Borek</w>": 21922,
  "Borkowski</w>": 36410,
  "Borku</w>": 49474,
  "Borowi": 49442,
  "Borowski</w>": 21368,
  "Borowskiego</w>": 41719,
  "Boru": 15001,
  "Borussia</w>": 39535,
  "Bory": 15490,
  "Borys</w>": 25539,
  "Borzę": 32792,
  "Bos": 21855,
  "Bosa": 47830,
  "Boskiej</w>": 21333,
  "Boston</w>": 38431,
  "Bot": 45226,
  "Bot</w>": 6404,
  "Bote": 45184,
  "Botev</w>": 48825,
  "Bou": 41803,
  "Bour": 49055,
  "Bowiem</w>": 45952,
  "Box</w>": 24222,
  "Boys</w>": 35953,
  "Boś": 20692,
  "Bośni</w>": 27553,
  "Boż": 7931,
  "Boże": 14429,
  "Boże</w>": 12428,
  "Bożego</w>": 12891,
  "Bożej</w>": 17247,
  "Bożen": 36439,
  "Bożena</w>": 14933,
  "Bożym</w>": 39152,
  "Br": 21268,
  "Bra": 4108,
  "Bracia</w>": 34003,
  "Bractwa</w>": 45829,
  "Brak": 18796,
  "Brak</w>": 12863,
  "Brakowało</w>": 43169,
  "Brakuje</w>": 20366,
  "Bram": 17424,
  "Bramka</w>": 24889,
  "Bramkarz</w>": 34750,
  "Bramkarze</w>": 30308,
  "Bramki</w>": 7744,
  "Bramy</w>": 49009,
  "Bran": 16868,
  "Branie": 32058,
  "Brat</w>": 33107,
  "Brata</w>": 32550,
  "Braty": 37145,
  "Braun</w>": 37586,
  "Brave</w>": 47445,
  "Brazy": 15480,
  "Brazyli": 19896,
  "Brazylia</w>": 26165,
  "Brazylii</w>": 22977,
  "Brazylijczyk</w>": 45783,
  "Brał</w>": 42524,
  "Bre": 11304,
  "Bren": 45224,
  "Bri": 12996,
  "British</w>": 44906,
  "Bro": 5620,
  "Brod": 28201,
  "Broda</w>": 46223,
  "Brodzi": 39596,
  "Bron": 14230,
  "Broni": 10979,
  "Bronisław</w>": 17289,
  "Bronisława</w>": 27332,
  "Bronowi": 31479,
  "Bronowianka</w>": 36277,
  "Brow": 20761,
  "Browar</w>": 48807,
  "Brown</w>": 40484,
  "Broń</w>": 47174,
  "Brożek</w>": 27261,
  "Bru": 7036,
  "Bruk</w>": 44774,
  "Brukse": 12919,
  "Bruksela</w>": 38445,
  "Brukseli</w>": 15564,
  "Bruno</w>": 39728,
  "Bry": 5313,
  "Brygady</w>": 33842,
  "Brygi": 48672,
  "Brygier</w>": 32345,
  "Bryta": 9043,
  "Brytania</w>": 21929,
  "Brytanii</w>": 11605,
  "Brytyj": 14254,
  "Brytyjczycy</w>": 40420,
  "Brytyjczyków</w>": 49643,
  "Brz": 10432,
  "Brze": 5265,
  "Brzeg</w>": 46755,
  "Brzegu</w>": 39389,
  "Brzeska</w>": 22944,
  "Brzesko</w>": 17342,
  "Brzesku</w>": 19564,
  "Brzeszczach</w>": 36167,
  "Brzeszcze</w>": 30412,
  "Brzezi": 15742,
  "Brzezin": 31638,
  "Brzeziński</w>": 32496,
  "Brzeź": 25428,
  "Brzo": 26418,
  "Brzost": 25312,
  "Brzoz": 21957,
  "Brzozowski</w>": 46837,
  "Brzy": 29716,
  "Brąz": 30084,
  "Bu": 3025,
  "Buch": 34864,
  "Bucz": 30016,
  "Buczek</w>": 35550,
  "Bud": 10430,
  "Bud</w>": 44612,
  "Budape": 22494,
  "Budapeszcie</w>": 35644,
  "Budow": 7118,
  "Budowa</w>": 15249,
  "Budowlan": 19350,
  "Budowlanego</w>": 35101,
  "Budowlani</w>": 39666,
  "Budowlanych</w>": 34486,
  "Budownictwa</w>": 22628,
  "Budowy</w>": 40089,
  "Budowę</w>": 47623,
  "Budy": 13960,
  "Budynek</w>": 18060,
  "Budynków</w>": 46211,
  "Budzi": 46463,
  "Budzy": 37406,
  "Budże": 19029,
  "Budżet</w>": 28532,
  "Budżetu</w>": 42008,
  "Buen": 40633,
  "Buenos</w>": 42691,
  "Bug": 25732,
  "Bugaj": 46036,
  "Bugaj</w>": 37980,
  "Buj": 41038,
  "Bujak</w>": 27354,
  "Bukare": 41561,
  "Bukow": 17146,
  "Bukowi": 21601,
  "Bukowinie</w>": 48362,
  "Bukownie</w>": 42912,
  "Bukowno</w>": 38808,
  "Bukowski</w>": 39194,
  "Bul": 15580,
  "Bun": 15613,
  "Bunde": 23995,
  "Bundes": 31899,
  "Bur": 6778,
  "Burgun": 37877,
  "Burmistrz</w>": 14091,
  "Burza</w>": 27645,
  "Bush</w>": 31309,
  "Busha</w>": 35994,
  "Business</w>": 36484,
  "But": 27040,
  "Buzek</w>": 32536,
  "Buzka</w>": 28309,
  "Buł": 38891,
  "Bułgar": 13318,
  "Bułgaria</w>": 34940,
  "Bułgarii</w>": 24148,
  "By": 2805,
  "By</w>": 13714,
  "Bydgo": 8085,
  "Bydgoszcz</w>": 15396,
  "Bydgoszczy</w>": 11988,
  "Byle</w>": 49107,
  "Byli</w>": 14535,
  "Byliśmy</w>": 21764,
  "Byr": 43927,
  "Byst": 15417,
  "Byto": 16684,
  "Bytom</w>": 21139,
  "Bytomia</w>": 35928,
  "Bytomiu</w>": 28289,
  "Bytowie</w>": 45980,
  "Bytów</w>": 46794,
  "Bywa</w>": 27580,
  "Być</w>": 7390,
  "Był</w>": 5285,
  "Była</w>": 7932,
  "Byłam</w>": 26868,
  "Byłem</w>": 14061,
  "Było</w>": 8003,
  "Byłoby</w>": 26977,
  "Były</w>": 8092,
  "Bóg</w>": 10812,
  "Bą": 10843,
  "Bądź</w>": 43110,
  "Bąk</w>": 18356,
  "Bę": 9358,
  "Będ": 7627,
  "Będzi": 27118,
  "Będzie</w>": 6611,
  "Będziemy</w>": 12060,
  "Będą</w>": 10275,
  "Będąc</w>": 36923,
  "Będę</w>": 18523,
  "Bła": 9688,
  "Błaszczyk</w>": 36819,
  "Błaże": 45566,
  "Błażej</w>": 36415,
  "Bło": 14710,
  "Błoniach</w>": 41416,
  "Bły": 19067,
  "Błyskawi": 45604,
  "Błyskawica</w>": 31523,
  "Błą": 36537,
  "Błę": 10829,
  "Błęd": 49406,
  "Błęki": 11578,
  "Błękitni</w>": 15359,
  "Błękitnych</w>": 48579,
  "C": 39,
  "C</w>": 1023,
  "CA": 19458,
  "CA</w>": 9385,
  "CAN": 46288,
  "CB": 39893,
  "CBA</w>": 35911,
  "CBO": 37279,
  "CBOS</w>": 43969,
  "CBŚ</w>": 49550,
  "CC</w>": 21543,
  "CCC</w>": 41711,
  "CD": 30081,
  "CD</w>": 12948,
  "CE": 3616,
  "CE</w>": 6636,
  "CEDE": 46208,
  "CEJ</w>": 45712,
  "CEK</w>": 31592,
  "CENT": 21557,
  "CENTRUM</w>": 23094,
  "CER": 46869,
  "CEST</w>": 5140,
  "CET</w>": 6793,
  "CH": 4837,
  "CH</w>": 7344,
  "CHA": 46187,
  "CHA</w>": 41445,
  "CHAR": 34113,
  "CHE": 20554,
  "CHI": 37435,
  "CHNIA</w>": 37086,
  "CHO": 18210,
  "CHOD": 27283,
  "CHODY</w>": 38119,
  "CHOWA</w>": 45228,
  "CHY</w>": 25120,
  "CHÓW</w>": 34223,
  "CI": 5653,
  "CI</w>": 14329,
  "CIA</w>": 23773,
  "CIE": 11845,
  "CIE</w>": 19602,
  "CIM</w>": 30826,
  "CIN</w>": 22846,
  "CIĘ": 44772,
  "CJ": 7291,
  "CJA</w>": 10224,
  "CJE</w>": 19303,
  "CJI</w>": 28559,
  "CK</w>": 11075,
  "CKA</w>": 16038,
  "CKI</w>": 16151,
  "CKIE": 37795,
  "CM</w>": 48505,
  "CN": 49734,
  "CO": 12782,
  "CO</w>": 17175,
  "COM</w>": 33497,
  "COW": 41305,
  "CP</w>": 36859,
  "CS</w>": 36787,
  "CT": 37713,
  "CU": 29362,
  "CV</w>": 21871,
  "CY": 10401,
  "CY</w>": 16937,
  "CYJ": 16775,
  "CYJNA</w>": 49902,
  "CYKLI": 31138,
  "CYKLIN": 35258,
  "CZ": 4015,
  "CZ</w>": 8850,
  "CZA": 22912,
  "CZA</w>": 24854,
  "CZAJ</w>": 35788,
  "CZAK</w>": 36204,
  "CZAL": 48328,
  "CZAR": 28518,
  "CZE": 12920,
  "CZE</w>": 44013,
  "CZER": 44025,
  "CZKI</w>": 39870,
  "CZNA</w>": 34021,
  "CZNE</w>": 25857,
  "CZNY</w>": 36518,
  "CZO": 39291,
  "CZY": 9405,
  "CZY</w>": 32793,
  "CZYK</w>": 27757,
  "CZĘ": 35061,
  "CZĘSTO": 46142,
  "CZĘSTOCHOWA</w>": 47885,
  "Ca": 4972,
  "Cafe</w>": 34259,
  "Cal": 15853,
  "Calais</w>": 45134,
  "Cali": 35265,
  "Cam": 16716,
  "Came": 43014,
  "Can": 11792,
  "Can</w>": 42156,
  "Cana": 23130,
  "Canal</w>": 38531,
  "Cannes</w>": 43130,
  "Canon</w>": 46502,
  "Cantoro</w>": 48594,
  "Car": 6912,
  "Cari": 18161,
  "Caritas</w>": 23043,
  "Carlo</w>": 49012,
  "Carlos</w>": 34228,
  "Carmen</w>": 49103,
  "Caro": 48300,
  "Carrefo": 49261,
  "Carrie</w>": 49829,
  "Casper</w>": 19623,
  "Cassi": 35798,
  "Cassino</w>": 41773,
  "Cast": 27327,
  "Castillon</w>": 35059,
  "Cat": 41375,
  "Cał": 10648,
  "Cała</w>": 13744,
  "Całe</w>": 22468,
  "Całkowi": 27950,
  "Całość</w>": 22427,
  "Cały</w>": 11784,
  "Całą</w>": 38992,
  "Ce": 4401,
  "CeBeR</w>": 27609,
  "Cebula</w>": 40014,
  "Cecy": 40545,
  "Cegiel": 34732,
  "Cel": 11007,
  "Cel</w>": 34075,
  "Cele": 36215,
  "Celem</w>": 13137,
  "Celi": 29429,
  "Celnej</w>": 47854,
  "Celsjusza</w>": 35578,
  "Celtic</w>": 47191,
  "Cen": 3705,
  "Cena</w>": 15318,
  "Center</w>": 28561,
  "Centra": 9933,
  "Centralnego</w>": 22652,
  "Centralnej</w>": 38535,
  "Centralny</w>": 39609,
  "Centralnym</w>": 41730,
  "Centre</w>": 34149,
  "Centro": 45586,
  "Centrum</w>": 4553,
  "Ceny</w>": 18713,
  "Cer": 17314,
  "Cerami": 25212,
  "Ceramika</w>": 38719,
  "Cere": 42069,
  "Certyfika": 47929,
  "Cesar": 30582,
  "Cezar": 15499,
  "Cezar</w>": 33270,
  "Cezary</w>": 19647,
  "Ch": 2918,
  "Ch</w>": 20801,
  "Cha": 9121,
  "Chab": 36969,
  "Chal": 43185,
  "Cham": 24793,
  "Chan": 34622,
  "Char": 9597,
  "Charak": 20521,
  "Charaktery": 23156,
  "Charakterystyka</w>": 49264,
  "Charen": 48550,
  "Charles</w>": 31195,
  "Charlot": 42316,
  "Charsz": 40926,
  "Chału": 35199,
  "Chce": 31049,
  "Chce</w>": 23783,
  "Chcemy</w>": 8683,
  "Chcesz</w>": 35494,
  "Chci": 5472,
  "Chciał</w>": 25964,
  "Chciałabym</w>": 21705,
  "Chciałam</w>": 33863,
  "Chciałbym</w>": 7893,
  "Chciałem</w>": 15913,
  "Chcie": 15188,
  "Chcieli</w>": 40013,
  "Chcielibyśmy</w>": 26113,
  "Chcieliśmy</w>": 23869,
  "Chcą</w>": 20466,
  "Chcąc</w>": 31269,
  "Chcę</w>": 10316,
  "Che": 6885,
  "Chel": 25292,
  "Chelsea</w>": 26747,
  "Chemi": 23139,
  "Chemik</w>": 41747,
  "Cheł": 11030,
  "Chełm": 23549,
  "Chełm</w>": 43989,
  "Chełmek</w>": 46018,
  "Chełmku</w>": 47478,
  "Chi": 6300,
  "Chica": 16993,
  "Chicago</w>": 17180,
  "Chil": 41435,
  "Chile</w>": 31258,
  "Chin</w>": 20175,
  "Chinach</w>": 23353,
  "Chiny</w>": 22843,
  "Chiron</w>": 25104,
  "Chirur": 36795,
  "Chińczycy</w>": 43304,
  "Chle": 32743,
  "Chleb": 38753,
  "Chmie": 11269,
  "Chmiel": 36964,
  "Chmiel</w>": 35717,
  "Chmielewski</w>": 34574,
  "Chmura</w>": 38775,
  "Cho": 3318,
  "Chobot</w>": 34544,
  "Chocho": 34520,
  "Chociaż</w>": 12105,
  "Chod": 18651,
  "Chodzi</w>": 7490,
  "Chodzie": 40233,
  "Chodzieży</w>": 46437,
  "Chodziło</w>": 22435,
  "Choj": 11635,
  "Chojnacki</w>": 49605,
  "Chojnic</w>": 48640,
  "Chojnicach</w>": 38968,
  "Chojnice</w>": 32475,
  "Cholewa</w>": 44992,
  "Chopin</w>": 48559,
  "Chopina</w>": 21444,
  "Chor": 8426,
  "Choro": 25545,
  "Choroba</w>": 37383,
  "Chorwa": 17623,
  "Chorwacja</w>": 34202,
  "Chorwacji</w>": 27558,
  "Chorych</w>": 20654,
  "Chorzowa</w>": 40419,
  "Chorzowie</w>": 23084,
  "Chorzów</w>": 18652,
  "Chorób</w>": 43368,
  "Chowa": 33500,
  "Chowaniec</w>": 40818,
  "Choć</w>": 3483,
  "Choćby</w>": 30221,
  "Chra": 35211,
  "Chri": 11333,
  "Chris</w>": 35232,
  "Christian</w>": 42285,
  "Christop": 36366,
  "Chro": 18861,
  "Chrob": 22311,
  "Chrobak</w>": 47761,
  "Chrobrego</w>": 31941,
  "Chrobry</w>": 47208,
  "Chru": 25712,
  "Chry": 8776,
  "Chrystu": 9613,
  "Chrystus</w>": 24918,
  "Chrystusa</w>": 13599,
  "Chrzan": 8134,
  "Chrzanowa</w>": 25582,
  "Chrzanowie</w>": 17224,
  "Chrzanowski</w>": 31882,
  "Chrzanów</w>": 18986,
  "Chrzci": 2299,
  "Chrześcija": 20967,
  "Chrzą": 41354,
  "Chu": 18423,
  "Chur": 45407,
  "Chwa": 42404,
  "Chwi": 16834,
  "Chwilę</w>": 24715,
  "Chy": 7779,
  "Chyba</w>": 9921,
  "Chór": 49068,
  "Chór</w>": 28128,
  "Chę": 36064,
  "Chęt": 17044,
  "Chętni</w>": 40830,
  "Chętnie</w>": 29755,
  "Chętnych</w>": 42298,
  "Chło": 9066,
  "Chłod": 39872,
  "Chłop": 14123,
  "Chłopak</w>": 32539,
  "Chłopcy</w>": 18284,
  "Chłopiec</w>": 33237,
  "Ci": 3708,
  "Ci</w>": 7086,
  "Cia": 29559,
  "Ciała</w>": 40253,
  "Ciało</w>": 30055,
  "Cich": 36339,
  "Cicho": 22986,
  "Cichoń</w>": 41273,
  "Cichy</w>": 42345,
  "Cie": 3892,
  "Ciebie</w>": 15777,
  "Ciechan": 23914,
  "Ciechanowie</w>": 47076,
  "Ciecho": 47485,
  "Cieka": 10354,
  "Ciekawe</w>": 20011,
  "Ciekawo": 25242,
  "Ciekawostki</w>": 39704,
  "Ciekawostką</w>": 47263,
  "Ciem": 38286,
  "Ciep": 24431,
  "Cieplnej</w>": 48824,
  "Cier": 36360,
  "Ciesie": 19299,
  "Ciesielski</w>": 26166,
  "Cieszy</w>": 26123,
  "Cieszymy</w>": 25164,
  "Cieszynie</w>": 38410,
  "Cieszę</w>": 16245,
  "Cieśla": 26331,
  "Cieśla</w>": 40088,
  "Cieślak</w>": 32730,
  "Cieśli": 31477,
  "Cimo": 23085,
  "Cimoszewicz</w>": 37266,
  "Cimoszewicza</w>": 41369,
  "Cinema</w>": 39068,
  "Ciszewski</w>": 31924,
  "Citi": 42525,
  "Citro": 40880,
  "City</w>": 13751,
  "Ciu": 30433,
  "Cią": 30447,
  "Ciąg": 18699,
  "Ciągle</w>": 21448,
  "Cię</w>": 15120,
  "Cięż": 13036,
  "Ciężko</w>": 34325,
  "Cla": 18767,
  "Clar": 34735,
  "Clau": 48778,
  "Cle": 15681,
  "Clepar": 30033,
  "Clepardia</w>": 39630,
  "Cleveland</w>": 49064,
  "Cli": 29231,
  "Clin": 22300,
  "Clinton</w>": 34420,
  "Clintona</w>": 47420,
  "Clu": 43734,
  "Club</w>": 19169,
  "Cmenta": 29175,
  "Cmentarz</w>": 37218,
  "Cmentarzu</w>": 49662,
  "Co": 4277,
  "Co</w>": 3407,
  "Coca</w>": 49039,
  "Codziennie</w>": 21072,
  "Col": 11150,
  "Colgates": 31430,
  "ColgatesBilly</w>": 31570,
  "Colibretto</w>": 25314,
  "College</w>": 42856,
  "Collegium</w>": 30747,
  "Colo": 39531,
  "Colum": 42413,
  "Com": 11334,
  "Company</w>": 46015,
  "Con": 9201,
  "Concor": 35149,
  "Cone</w>": 45773,
  "Coo": 40760,
  "Cor": 12467,
  "Coraz</w>": 11716,
  "Cos": 36855,
  "Coun": 32782,
  "Coś</w>": 15658,
  "Cra": 6444,
  "Craco": 6906,
  "Cracovia</w>": 10781,
  "Cracovii</w>": 12571,
  "Cracovią</w>": 35829,
  "Cre": 18182,
  "Cri": 25724,
  "Cro": 30655,
  "Cru": 22324,
  "Cu": 7695,
  "Cudow": 48759,
  "Cukier": 30063,
  "Cup</w>": 22337,
  "Cur": 26259,
  "Curie</w>": 40817,
  "Cy": 5127,
  "Cybu": 36212,
  "Cybulski</w>": 43500,
  "Cyc</w>": 48194,
  "Cyf": 37615,
  "Cygan": 46567,
  "Cygan</w>": 32584,
  "Cykl</w>": 46263,
  "Cykli": 44220,
  "Cyp": 48931,
  "Cypri": 24819,
  "Cyprian</w>": 26835,
  "Cywi": 22054,
  "Cywilnego</w>": 36709,
  "Cz": 2432,
  "Cz</w>": 32899,
  "Cza": 4940,
  "Czaj": 18478,
  "Czaja</w>": 38004,
  "Czajka</w>": 38893,
  "Czajkowski</w>": 49105,
  "Czap": 30454,
  "Czapli": 45024,
  "Czar": 4581,
  "Czarek</w>": 24696,
  "Czarn": 20709,
  "Czarna</w>": 20905,
  "Czarne": 48634,
  "Czarne</w>": 32398,
  "Czarnecki</w>": 33017,
  "Czarnego</w>": 30819,
  "Czarnej</w>": 33366,
  "Czarni</w>": 12739,
  "Czarno": 30482,
  "Czarnogó": 35861,
  "Czarny</w>": 20286,
  "Czarnych</w>": 25772,
  "Czarnym</w>": 35512,
  "Czartory": 40109,
  "Czas</w>": 10943,
  "Czasami</w>": 15366,
  "Czasem</w>": 12906,
  "Czasu</w>": 39707,
  "Czasy</w>": 47790,
  "Cze": 3543,
  "Czech": 18535,
  "Czech</w>": 12207,
  "Czecha</w>": 48510,
  "Czechach</w>": 20784,
  "Czechami</w>": 44846,
  "Czechosłowa": 24958,
  "Czechosłowacji</w>": 34580,
  "Czechy</w>": 18131,
  "Czechów</w>": 44532,
  "Czecze": 24686,
  "Czeczenii</w>": 35329,
  "Czego</w>": 20318,
  "Czeka": 8384,
  "Czeka</w>": 30012,
  "Czekaj</w>": 40684,
  "Czekają</w>": 38369,
  "Czekam</w>": 44259,
  "Czekamy</w>": 12295,
  "Czemu</w>": 25991,
  "Czer": 5151,
  "Czere": 49755,
  "Czerka": 36891,
  "Czerkawski</w>": 49053,
  "Czerni": 31706,
  "Czerw": 12707,
  "Czerwca</w>": 45375,
  "Czerwiec</w>": 37881,
  "Czerwiński</w>": 29245,
  "Czerwo": 17634,
  "Czerwona</w>": 21220,
  "Czerwone</w>": 30730,
  "Czerwonego</w>": 31386,
  "Czerwonej</w>": 30908,
  "Czerwony</w>": 25422,
  "Czesi</w>": 28700,
  "Czesław</w>": 12329,
  "Czesława</w>": 21590,
  "Cześć</w>": 15406,
  "Czo": 16807,
  "Czor": 31232,
  "Czter": 40355,
  "Cztere": 24638,
  "Czterech</w>": 27229,
  "Cztero": 49668,
  "Cztery</w>": 15141,
  "Czu": 12299,
  "Czuję</w>": 29117,
  "Czuwa": 36501,
  "Czuwaj</w>": 49938,
  "Czwar": 17995,
  "Czwartek</w>": 44529,
  "Czwarty</w>": 46302,
  "Czy": 4322,
  "Czy</w>": 3007,
  "Czyli</w>": 12280,
  "Czym</w>": 17987,
  "Czyn": 32553,
  "Czytaj</w>": 48170,
  "Czytel": 7649,
  "Czytelnicy</w>": 22172,
  "Czytelniczka</w>": 38391,
  "Czytelnik</w>": 24037,
  "Czytelnika</w>": 49762,
  "Czytelnikom</w>": 48972,
  "Czytelników</w>": 14798,
  "Czyż": 47968,
  "Czyż</w>": 26779,
  "Czyżby</w>": 21580,
  "Czyży": 46786,
  "Czyżyny</w>": 47236,
  "Czę": 4584,
  "Często": 7792,
  "Często</w>": 9680,
  "Częstochowa</w>": 16723,
  "Częstochowie</w>": 17287,
  "Częstochowskiej</w>": 38637,
  "Częstochowy</w>": 19725,
  "Część</w>": 8746,
  "Człon": 13241,
  "Członek</w>": 40773,
  "Członkowie</w>": 16409,
  "Człowie": 9346,
  "Człowiek</w>": 13510,
  "Człowieka</w>": 17369,
  "Człu": 26149,
  "CÓW</w>": 39469,
  "Córka</w>": 32813,
  "Cóż</w>": 2034,
  "CĘ</w>": 34432,
  "CŁAW</w>": 23800,
  "D": 2290,
  "D</w>": 1006,
  "DA": 7010,
  "DA</w>": 11452,
  "DACHY</w>": 42071,
  "DALE": 46104,
  "DAM</w>": 14375,
  "DAN</w>": 49140,
  "DAR": 27693,
  "DD": 26289,
  "DE": 7589,
  "DE</w>": 32112,
  "DEK</w>": 37812,
  "DER</w>": 38093,
  "DG</w>": 25192,
  "DH</w>": 45521,
  "DI": 21451,
  "DI</w>": 26964,
  "DIE": 47690,
  "DJ</w>": 25593,
  "DK</w>": 11949,
  "DL</w>": 49190,
  "DLA</w>": 23291,
  "DM</w>": 41440,
  "DN</w>": 48461,
  "DNA</w>": 23760,
  "DNI": 12814,
  "DNIE</w>": 43487,
  "DNIK</w>": 36108,
  "DO": 6378,
  "DO</w>": 10338,
  "DOB": 42777,
  "DOCIE": 37111,
  "DOL": 43181,
  "DOM</w>": 15951,
  "DOMO": 49033,
  "DOW": 21729,
  "DP</w>": 20961,
  "DPS</w>": 27132,
  "DR</w>": 42499,
  "DRA": 22254,
  "DRE": 36466,
  "DREW": 45062,
  "DRO": 36692,
  "DS</w>": 15984,
  "DT</w>": 37664,
  "DU": 16612,
  "DVD</w>": 19951,
  "DW": 13350,
  "DW</w>": 39326,
  "DWU": 17811,
  "DWUPOKOJOWE</w>": 18896,
  "DY": 12713,
  "DY</w>": 19262,
  "DZ": 5327,
  "DZ</w>": 34249,
  "DZE": 33183,
  "DZENIA</w>": 41975,
  "DZI": 9446,
  "DZIAŁ": 21037,
  "DZIAŁKA</w>": 38587,
  "DZIE": 11446,
  "DZIE</w>": 32146,
  "DZIEŃ</w>": 45212,
  "Da": 3168,
  "Da</w>": 42574,
  "Dabrowski</w>": 42075,
  "Daewoo</w>": 32126,
  "Dag": 33273,
  "Daga</w>": 31245,
  "Dagmara</w>": 40850,
  "Daj": 39064,
  "Daj</w>": 14790,
  "Daje</w>": 36426,
  "Dal": 13455,
  "Dale": 25890,
  "Dalej</w>": 20006,
  "Dali": 15591,
  "Dalin</w>": 23394,
  "Dalinu</w>": 44026,
  "Dallas</w>": 33961,
  "Dalsze</w>": 36632,
  "Dama": 45678,
  "Damian</w>": 11769,
  "Damiana</w>": 41230,
  "Dan": 7774,
  "Dane</w>": 20297,
  "Dani": 41214,
  "Dania</w>": 26620,
  "Danie": 7661,
  "Daniel</w>": 9434,
  "Daniela</w>": 25420,
  "Danii</w>": 19528,
  "Danu": 33142,
  "Danuta</w>": 12524,
  "Danuty</w>": 47465,
  "Dar": 9228,
  "Dar</w>": 49504,
  "Darek</w>": 23665,
  "Dari": 5432,
  "Daria</w>": 34578,
  "Dariusz</w>": 6055,
  "Dariusza</w>": 19092,
  "Data</w>": 32781,
  "Dau": 49822,
  "Dave</w>": 40666,
  "Davi": 12226,
  "David</w>": 19056,
  "Davida</w>": 38012,
  "Daw": 19709,
  "Dawi": 8390,
  "Dawid</w>": 10488,
  "Dawida</w>": 28545,
  "Dawniej</w>": 27000,
  "Dawno</w>": 41257,
  "De": 3194,
  "De</w>": 21014,
  "Debiu": 37441,
  "Debiut": 48842,
  "Debiut</w>": 47522,
  "Dec</w>": 16006,
  "Decy": 11900,
  "Decyz": 16586,
  "Decyzja</w>": 15439,
  "Decyzje</w>": 39235,
  "Decyzją</w>": 48590,
  "Decyzję</w>": 25159,
  "Defini": 44004,
  "Dekla": 37521,
  "Del": 15289,
  "Dele": 21010,
  "Delega": 27246,
  "Deli": 38862,
  "Dem": 28526,
  "Demb": 49286,
  "Demografia</w>": 38467,
  "Demokra": 7949,
  "Demokracja</w>": 44166,
  "Demokratyczna</w>": 40921,
  "Demokratycznej</w>": 10668,
  "Den": 21724,
  "Departa": 18696,
  "Departament</w>": 42888,
  "Departamentu</w>": 26636,
  "Depor": 42984,
  "Deportivo</w>": 47750,
  "Der": 16966,
  "Derby</w>": 38530,
  "Detro": 28287,
  "Detroit</w>": 28503,
  "Deut": 31142,
  "Deutsche</w>": 43097,
  "Di": 5359,
  "Di</w>": 42160,
  "Dia": 19251,
  "Diab": 32944,
  "Diabe": 42127,
  "Diagno": 44767,
  "Dial": 31402,
  "Dialog</w>": 49812,
  "Diana</w>": 46160,
  "Die": 12943,
  "Die</w>": 45390,
  "Diece": 36069,
  "Diego</w>": 49104,
  "Dietla</w>": 41538,
  "Dir": 37792,
  "Dis": 44571,
  "Division</w>": 46372,
  "Dla</w>": 4114,
  "Dlaczego</w>": 5640,
  "Dlatego</w>": 4311,
  "Dmi": 44829,
  "Dni</w>": 10971,
  "Dnia</w>": 4892,
  "Do": 4083,
  "Do</w>": 2121,
  "Dob": 4627,
  "Dobczycach</w>": 44700,
  "Dobczyce</w>": 41100,
  "Dobie": 30524,
  "Dobosz</w>": 36143,
  "Dobra</w>": 18895,
  "Dobre</w>": 23113,
  "Dobrego</w>": 36844,
  "Dobrej</w>": 40628,
  "Dobro": 24061,
  "Dobrowol": 28095,
  "Dobrowolski</w>": 39767,
  "Dobry</w>": 19809,
  "Dobrym</w>": 49188,
  "Dobrze</w>": 8869,
  "Docelowo</w>": 45660,
  "Dochody</w>": 40269,
  "Dochód</w>": 32610,
  "Dod": 5756,
  "Doda": 42851,
  "Dodaje</w>": 25588,
  "Dodajmy</w>": 22295,
  "Dodam</w>": 46265,
  "Dodat": 9221,
  "Dodatkowe</w>": 29101,
  "Dodatkowo</w>": 13583,
  "Dodatkowym</w>": 44450,
  "Dodatkową</w>": 49083,
  "Dodał</w>": 24147,
  "Dodek": 32707,
  "DodekBot</w>": 32950,
  "Dog": 36776,
  "Doj": 39615,
  "Dojazd</w>": 38243,
  "Dokona": 33011,
  "Doktor</w>": 29169,
  "Dokumen": 17248,
  "Dokument</w>": 33964,
  "Dokumenty</w>": 36915,
  "Dokąd</w>": 48875,
  "Dokład": 18790,
  "Dokładnie</w>": 25547,
  "Dol": 6756,
  "Dolina</w>": 33871,
  "Dolinie</w>": 37388,
  "Doliny</w>": 29990,
  "Dolna</w>": 18664,
  "Dolne</w>": 32920,
  "Dolnego</w>": 30896,
  "Dolnej</w>": 19420,
  "Dolnoślą": 27259,
  "Dolny</w>": 37408,
  "Dolnym</w>": 26898,
  "Dom": 45232,
  "Dom</w>": 8884,
  "Doma": 24623,
  "Domag": 25715,
  "Domagała</w>": 44499,
  "Domi": 9192,
  "Domin": 37489,
  "Domin</w>": 37655,
  "Domini": 17497,
  "Dominik</w>": 14931,
  "Dominika</w>": 17214,
  "Domu</w>": 7039,
  "Domy</w>": 40813,
  "Don": 27214,
  "Don</w>": 23465,
  "Dona": 12793,
  "Donald</w>": 19524,
  "Donalda</w>": 33850,
  "Dopiero</w>": 7330,
  "Dopóki</w>": 27943,
  "Dor": 13983,
  "Doradz": 29047,
  "Doradztwa</w>": 34756,
  "Doro": 7241,
  "Dorota</w>": 9684,
  "Doroty</w>": 36305,
  "Dort": 38877,
  "Doru": 39208,
  "Dos": 30850,
  "Doskona": 20371,
  "Doskonale</w>": 34783,
  "Dosta": 18577,
  "Dostał</w>": 46148,
  "Dostałem</w>": 48728,
  "Dosto": 43677,
  "Dostrze": 48061,
  "Dostęp": 45127,
  "Doszło</w>": 27387,
  "Dot": 24264,
  "Dotar": 44184,
  "Doty": 14225,
  "Dotych": 11260,
  "Dotychczas": 22777,
  "Dotychczas</w>": 14643,
  "Dotychczasowe</w>": 41461,
  "Dotychczasowy</w>": 47732,
  "Dotyczy</w>": 16127,
  "Dotąd</w>": 32544,
  "Dou": 44306,
  "Dow": 12709,
  "Dowie": 24229,
  "Dowo": 46917,
  "Dowodem</w>": 49548,
  "Dowód": 39271,
  "Dowódz": 48708,
  "Doświad": 39092,
  "Doświadczenie</w>": 44939,
  "Dość</w>": 21959,
  "Doży": 45893,
  "Dr": 29036,
  "Dr</w>": 19348,
  "Dra": 9103,
  "Drabi": 36185,
  "Drabik</w>": 45345,
  "Dragon": 48279,
  "Dragon</w>": 44690,
  "Drama": 41430,
  "Dre": 10756,
  "Dream</w>": 24072,
  "Drewni": 30637,
  "Dro": 5984,
  "Drob": 30298,
  "Drog": 30135,
  "Droga</w>": 14073,
  "Drogi</w>": 20853,
  "Drogowcy</w>": 49452,
  "Drogowego</w>": 21514,
  "Droz": 24248,
  "Drozd</w>": 42973,
  "Dru": 4343,
  "Druga</w>": 10698,
  "Drugi</w>": 10425,
  "Drugie</w>": 13404,
  "Drugiego</w>": 45061,
  "Drugim</w>": 25339,
  "Drugą</w>": 22708,
  "Druży": 24390,
  "Drużyna</w>": 15345,
  "Drużyny</w>": 32369,
  "Dry": 26139,
  "Drz": 28338,
  "Drze": 12833,
  "Drzemicki</w>": 35972,
  "Drzewa</w>": 49914,
  "Drzewiecki</w>": 39710,
  "Drzwi</w>": 31259,
  "Drzy": 37580,
  "Dróg</w>": 10241,
  "Drą": 28969,
  "Drąg</w>": 49283,
  "Du": 3491,
  "Dubiel</w>": 42013,
  "Dubli": 47395,
  "Duch": 21305,
  "Duch</w>": 22529,
  "Ducha": 46709,
  "Ducha</w>": 24552,
  "Dud": 20311,
  "Duda</w>": 19182,
  "Dudek</w>": 15173,
  "Dudka</w>": 31183,
  "Dudzik</w>": 41466,
  "Dul": 31403,
  "Dum": 27338,
  "DumZiBoT</w>": 39991,
  "Dun": 28254,
  "Dunaj": 12497,
  "Dunajca</w>": 22756,
  "Dunajcem</w>": 32906,
  "Dunajcu</w>": 31146,
  "Dunaje": 13064,
  "Dunajec</w>": 13625,
  "Dur": 25583,
  "Duszczyńska</w>": 39960,
  "Dut": 31977,
  "Dutkiewicz</w>": 48565,
  "Duż": 13213,
  "Duża</w>": 28102,
  "Duże</w>": 22796,
  "Dużo</w>": 16580,
  "Duży</w>": 28221,
  "Dużym</w>": 36595,
  "Dużą</w>": 39132,
  "Dw": 38123,
  "Dwa": 35367,
  "Dwa</w>": 7729,
  "Dwaj</w>": 26953,
  "Dwie</w>": 11609,
  "Dwo": 13671,
  "Dwor": 14364,
  "Dworca</w>": 44188,
  "Dworu</w>": 44849,
  "Dwory</w>": 26379,
  "Dworze</w>": 32409,
  "Dworzec</w>": 36421,
  "Dworów</w>": 36364,
  "Dwu": 16647,
  "Dwudzie": 48893,
  "Dwukrotnie</w>": 35000,
  "Dwó": 20004,
  "Dwóch</w>": 20755,
  "Dwój": 32256,
  "Dwójka</w>": 47734,
  "Dwór</w>": 21789,
  "Dy": 3545,
  "Dyjor</w>": 43594,
  "Dyna": 23168,
  "Dyplo": 35363,
  "Dyre": 6663,
  "Dyrekcja</w>": 19686,
  "Dyrekcji</w>": 25297,
  "Dyrektor</w>": 10598,
  "Dyrektorzy</w>": 36826,
  "Dyscypli": 36534,
  "Dyscypliny</w>": 49484,
  "Dysk": 22911,
  "Dyskobo": 34665,
  "Dyskografia</w>": 40700,
  "Dysku": 7966,
  "Dyskusja</w>": 8450,
  "Dyst": 36170,
  "Dywizj": 40251,
  "Dywizji</w>": 35043,
  "Dywizjonu</w>": 48913,
  "Dz": 23606,
  "Dz</w>": 17257,
  "Dzi": 10093,
  "Dziad": 18361,
  "Dziadek</w>": 36634,
  "Dział": 8441,
  "Dział</w>": 45878,
  "Działa": 17048,
  "Działa</w>": 34313,
  "Działacze</w>": 23050,
  "Działalność</w>": 24325,
  "Działania</w>": 25756,
  "Działanie</w>": 48674,
  "Działu</w>": 46703,
  "Dzie": 3041,
  "Dzieci</w>": 7519,
  "Dzieciom</w>": 38304,
  "Dziecię": 22542,
  "Dziecka</w>": 14951,
  "Dziecko</w>": 21219,
  "Dziedzi": 13140,
  "Dziedzic</w>": 23376,
  "Dziedzictwa</w>": 35286,
  "Dzieje</w>": 25065,
  "Dziel": 13915,
  "Dzielnica</w>": 45019,
  "Dzielnicy</w>": 20687,
  "Dzien": 5673,
  "Dzienni": 34841,
  "Dziennik</w>": 12648,
  "Dziennika": 27193,
  "Dziennika</w>": 10431,
  "Dziennikarze</w>": 38371,
  "Dziennikowi</w>": 30860,
  "Dzienniku</w>": 24787,
  "Dzier": 19198,
  "Dzierz": 38946,
  "Dzierżoni": 38825,
  "Dziesią": 49178,
  "Dziesię": 23483,
  "Dziesięć</w>": 32211,
  "Dziew": 10650,
  "Dziewczyn": 31000,
  "Dziewczyna</w>": 27667,
  "Dziewczynka</w>": 42601,
  "Dziewczyny</w>": 30199,
  "Dziewczęta</w>": 27491,
  "Dziewię": 32762,
  "Dzieła</w>": 48463,
  "Dzieło</w>": 46684,
  "Dzień</w>": 8876,
  "Dzisiaj</w>": 6870,
  "Dzisiej": 23683,
  "Dziu": 21365,
  "Dziuba</w>": 49431,
  "Dziur": 42274,
  "Dziwi": 22514,
  "Dziwisz</w>": 36972,
  "Dziwne</w>": 45776,
  "Dzię": 22039,
  "Dzięki</w>": 5214,
  "Dziękujemy</w>": 35163,
  "Dziękuję</w>": 3688,
  "Dziś</w>": 2111,
  "Dzwo": 23878,
  "DĄ": 36517,
  "DĄBR": 49325,
  "Dą": 12671,
  "Dąb": 6142,
  "Dąb</w>": 28933,
  "Dąbro": 28194,
  "Dąbrovia</w>": 39684,
  "Dąbrowa</w>": 21099,
  "Dąbrowie</w>": 23136,
  "Dąbrowska</w>": 39069,
  "Dąbrowski</w>": 15997,
  "Dąbrowskiego</w>": 19202,
  "Dąbrowy</w>": 29113,
  "DĘ": 47681,
  "Dę": 5558,
  "Dęb": 10206,
  "Dębi": 8340,
  "Dębica</w>": 17651,
  "Dębicy</w>": 12968,
  "Dębno</w>": 35362,
  "Dębski</w>": 23616,
  "DŁU": 49564,
  "Dłu": 7112,
  "Długa</w>": 33271,
  "Długi</w>": 38749,
  "Długie</w>": 47163,
  "Długiej</w>": 41190,
  "Długo": 21420,
  "Długo</w>": 25107,
  "Długosz</w>": 34017,
  "Długosza</w>": 38068,
  "Długość</w>": 36568,
  "DŹ</w>": 32591,
  "Dźwi": 45363,
  "Dż": 42891,
  "E": 41,
  "E</w>": 1039,
  "EB</w>": 45259,
  "EC": 32087,
  "EC</w>": 31154,
  "EK": 38625,
  "EK</w>": 10265,
  "EKS": 45832,
  "EL": 15693,
  "EL</w>": 49304,
  "ELE": 19852,
  "ELEKT": 22883,
  "ELEKTRO": 30283,
  "ELEKTRY": 49117,
  "ELKA</w>": 43388,
  "EM": 22565,
  "EM</w>": 22641,
  "EMET</w>": 36146,
  "EMMER": 31488,
  "EMMERSON</w>": 31678,
  "EN": 19187,
  "EN</w>": 48704,
  "ER": 5382,
  "ER</w>": 44046,
  "ERA</w>": 24579,
  "ES</w>": 44388,
  "ET</w>": 48343,
  "EU": 22937,
  "EU</w>": 38099,
  "EURO": 31047,
  "EWAF</w>": 47069,
  "EWG</w>": 44559,
  "EX": 40179,
  "EX</w>": 41961,
  "Ear": 37955,
  "Echa</w>": 41266,
  "Echo</w>": 32581,
  "Echu</w>": 49209,
  "Ed": 6436,
  "Edi": 36247,
  "Edmund</w>": 25986,
  "Edu": 8578,
  "Eduka": 34681,
  "Edukacja</w>": 37638,
  "Edukacji</w>": 10573,
  "Edwar": 8178,
  "Edward</w>": 10250,
  "Edwarda</w>": 20147,
  "Edy": 12828,
  "Edyta</w>": 18718,
  "Efe": 12710,
  "Efekt</w>": 24467,
  "Efektem</w>": 29091,
  "Efekty</w>": 38701,
  "Eg": 16694,
  "Egi": 39140,
  "Egip": 17470,
  "Egipcie</w>": 38611,
  "Egipt</w>": 44809,
  "Egiptu</w>": 29953,
  "Egza": 24653,
  "Egzamin</w>": 47535,
  "Egzamina": 47730,
  "Ei": 21730,
  "Ein": 26008,
  "Ek": 7822,
  "Eki": 28298,
  "Ekipa</w>": 35914,
  "Eko": 29179,
  "Eko</w>": 40662,
  "Ekologi": 23958,
  "Ekonomi": 11078,
  "Ekonomicznej</w>": 24242,
  "Ekonomicznych</w>": 37258,
  "Eksp": 26688,
  "Eksper": 21559,
  "Eksperci</w>": 36098,
  "Ekspozy": 33218,
  "Ekspozycja</w>": 43995,
  "Ekstra": 21223,
  "Ekstraklasa</w>": 41853,
  "Ekstraklasy</w>": 48007,
  "Ekwad": 39289,
  "El": 4606,
  "El</w>": 26477,
  "Ela": 48690,
  "Ela</w>": 33360,
  "Elblą": 11147,
  "Elbląg</w>": 25008,
  "Elbląga</w>": 32100,
  "Elblągu</w>": 22143,
  "Ele": 7848,
  "Elec": 36158,
  "Elekt": 10722,
  "Elektro": 17974,
  "Elektry": 33008,
  "Eli": 13588,
  "Eliminacje</w>": 45343,
  "Eliz": 42265,
  "Eliza": 42767,
  "Elizabeth</w>": 44021,
  "Elli": 34092,
  "ElliAt</w>": 44169,
  "Elske</w>": 44861,
  "Elżbie": 7097,
  "Elżbieta</w>": 8308,
  "Elżbiety</w>": 25738,
  "Elżbietę</w>": 49321,
  "Em": 20951,
  "Ema": 43282,
  "Emery": 20122,
  "Emi": 22951,
  "Emil</w>": 32252,
  "Emili": 18293,
  "Emilia</w>": 28975,
  "Emilian</w>": 47884,
  "Emo": 32101,
  "Emocje</w>": 46141,
  "Empi": 49169,
  "En": 7992,
  "Encyklope": 35977,
  "Ener": 9551,
  "Energe": 13854,
  "Energetyka</w>": 48670,
  "Energetyki</w>": 33089,
  "Energia</w>": 44327,
  "Eneu": 34617,
  "Eneuel</w>": 34625,
  "Engel</w>": 40027,
  "Ensitherum</w>": 34031,
  "Epi": 16512,
  "Epidemi": 37913,
  "Episkopa": 29524,
  "Episkopatu</w>": 36227,
  "Epo": 49612,
  "Er": 12015,
  "Era</w>": 38333,
  "Eri": 19247,
  "Ern": 47723,
  "Erne": 34400,
  "Es": 19512,
  "Escar": 30829,
  "Escarbot</w>": 31151,
  "Esto": 20652,
  "Estonia</w>": 48350,
  "Estonii</w>": 36213,
  "Et": 26077,
  "Eti": 38322,
  "Etnografi": 45449,
  "Eu": 8257,
  "Eugeni": 12080,
  "Eugeniusz</w>": 15153,
  "Eugeniusza</w>": 33411,
  "Eulalka</w>": 29820,
  "Eure": 45975,
  "Euro": 2873,
  "Euro</w>": 14855,
  "Europa</w>": 14143,
  "Europe": 43861,
  "Europe</w>": 43195,
  "European</w>": 49783,
  "Europej": 3773,
  "Europejczyków</w>": 49737,
  "Europejska</w>": 14566,
  "Europejski</w>": 24532,
  "Europejskich</w>": 41923,
  "Europejskie</w>": 38477,
  "Europejskiego</w>": 12947,
  "Europejskiej</w>": 4853,
  "Europejskim</w>": 33046,
  "Europejską</w>": 16057,
  "Europie</w>": 6554,
  "Europy</w>": 4813,
  "Europą</w>": 40363,
  "Europę</w>": 27189,
  "Euze": 41811,
  "Euzebi": 44466,
  "Euzebiusz</w>": 49792,
  "Ev": 42046,
  "Eva": 39598,
  "EvaTM</w>": 43918,
  "Ever": 45903,
  "Ewa</w>": 6209,
  "Ewange": 19899,
  "Ewangelii</w>": 38158,
  "Ewe": 16582,
  "Ewelina</w>": 20150,
  "Ewentu": 38479,
  "Ewy</w>": 21378,
  "Ewę</w>": 38377,
  "Ex": 9825,
  "Expre": 21255,
  "Expres": 38370,
  "Express</w>": 32816,
  "F": 42,
  "F1": 36253,
  "F1</w>": 47115,
  "F1ski</w>": 46230,
  "F</w>": 1091,
  "FA": 24249,
  "FA</w>": 10923,
  "FC</w>": 12550,
  "FE": 27200,
  "FE</w>": 49485,
  "FF": 45354,
  "FI": 7384,
  "FI</w>": 32649,
  "FIFA</w>": 30787,
  "FIL": 37641,
  "FIL</w>": 32085,
  "FIN": 44147,
  "FIR": 19641,
  "FIRMA</w>": 21327,
  "FIS</w>": 46642,
  "FK</w>": 33546,
  "FKN</w>": 39867,
  "FLI": 26309,
  "FLIZ": 31666,
  "FLIZOWANIE</w>": 32349,
  "FM</w>": 22773,
  "FN</w>": 21464,
  "FO": 8622,
  "FO</w>": 42247,
  "FOR": 31940,
  "FOT</w>": 16249,
  "FRA": 30459,
  "FRAN": 43855,
  "FRY": 29235,
  "FRYZJ": 31428,
  "FRYZJER": 36715,
  "FSO</w>": 45758,
  "Fa": 6414,
  "Fab": 11579,
  "Fabi": 25795,
  "Fablo": 23451,
  "Fablok</w>": 32975,
  "Fabry": 16281,
  "Fabryka</w>": 35009,
  "Fabryki</w>": 40197,
  "Faj": 27286,
  "Fak": 16455,
  "Fakro</w>": 45685,
  "Fakt</w>": 19638,
  "Faktem</w>": 36251,
  "Faktycznie</w>": 30666,
  "Fal": 16508,
  "Fan": 17738,
  "Fanta": 32589,
  "Fanz</w>": 33810,
  "Far": 14655,
  "Fat": 44549,
  "Fata": 39287,
  "Fau": 26110,
  "Faw": 37059,
  "Fawory": 41534,
  "Fał": 28328,
  "Fe": 4462,
  "Feb</w>": 19546,
  "Fede": 11519,
  "Federacja</w>": 39082,
  "Federacji</w>": 19700,
  "Fedor": 45830,
  "Fel": 24782,
  "Feli": 15017,
  "Feliks</w>": 34571,
  "Feliksa</w>": 47062,
  "Feni": 46123,
  "Fer": 9564,
  "Ferdyna": 34562,
  "Ferdynand</w>": 49904,
  "Feren": 32464,
  "Ferenc</w>": 43826,
  "Fernan": 27269,
  "Fernando</w>": 32942,
  "Ferra": 37002,
  "Ferrari</w>": 42213,
  "Festi": 35816,
  "Festival</w>": 49475,
  "Festiwal</w>": 12430,
  "Festiwalu</w>": 13159,
  "Festyn</w>": 33723,
  "Fey": 46631,
  "Feyenoor": 47689,
  "Fi": 3226,
  "Fiat</w>": 24724,
  "Fiata</w>": 32862,
  "Fie": 22228,
  "Figu": 38096,
  "Fil": 7055,
  "Filharmonii</w>": 25286,
  "Fili": 8114,
  "Filip": 29079,
  "Filip</w>": 12845,
  "Filipa</w>": 36003,
  "Filipek</w>": 45087,
  "Filipi": 28908,
  "Filipiak</w>": 41863,
  "Film</w>": 15211,
  "Filmowej</w>": 45637,
  "Filmy</w>": 46355,
  "Filmów</w>": 44670,
  "Filo": 40302,
  "Filozo": 25825,
  "Fin": 11202,
  "Fin</w>": 43572,
  "Fina": 6752,
  "Finans": 8975,
  "Finansowego</w>": 49568,
  "Finansów</w>": 10975,
  "Finał</w>": 18804,
  "Finlandia</w>": 24922,
  "Finlandii</w>": 25096,
  "Fir": 7821,
  "Firma</w>": 10509,
  "Firmy</w>": 22500,
  "Fizy": 15812,
  "Fizycznego</w>": 39904,
  "Fizycznej</w>": 29690,
  "Fl": 28756,
  "Fla": 15445,
  "Fle": 32141,
  "Fli": 41848,
  "Flo": 17143,
  "Flor": 14491,
  "Florek</w>": 39683,
  "Floren": 41906,
  "Flori": 21533,
  "Floria": 43116,
  "Florian</w>": 35039,
  "Floriana</w>": 42241,
  "Flory": 35053,
  "Fly": 25005,
  "Flyer</w>": 29487,
  "Fo": 11387,
  "Fol": 16998,
  "Folkl": 45901,
  "Fon": 29469,
  "For": 5511,
  "Ford</w>": 28752,
  "Forda</w>": 44572,
  "Fore": 39769,
  "Forma</w>": 47740,
  "Formu": 23031,
  "Formuły</w>": 39622,
  "Forna": 46899,
  "Fort</w>": 44865,
  "Fortu": 27993,
  "Fortuna</w>": 40163,
  "Forum</w>": 14369,
  "Fot": 18760,
  "Fot</w>": 5495,
  "Foto": 48679,
  "Foto</w>": 49183,
  "Fr": 27623,
  "Fra": 12842,
  "Frag": 36317,
  "Fran": 3308,
  "France": 44496,
  "France</w>": 24459,
  "Franci": 6972,
  "Francisco</w>": 34547,
  "Franciszek</w>": 10569,
  "Franciszka</w>": 16710,
  "Francja</w>": 12714,
  "Francji</w>": 5732,
  "Francją</w>": 36766,
  "Francję</w>": 46610,
  "Francu": 8938,
  "Francuz</w>": 32665,
  "Francuzi</w>": 21364,
  "Francuzów</w>": 29877,
  "Frank": 23030,
  "Frank</w>": 33789,
  "Franka</w>": 48131,
  "Frankfur": 25150,
  "Frankfurcie</w>": 43347,
  "Frankiewicz</w>": 48100,
  "Frankowski</w>": 28671,
  "Franz</w>": 39998,
  "Fre": 12441,
  "Fred": 23777,
  "Free": 42170,
  "Frei": 48768,
  "Fri": 26649,
  "Fri</w>": 14209,
  "Frie": 25690,
  "Fro": 33177,
  "From</w>": 49725,
  "Fron": 24506,
  "Fry": 9693,
  "Fryd": 15976,
  "Frydery": 18270,
  "Fryderyk</w>": 34431,
  "Fryderyka</w>": 29056,
  "Frą": 24277,
  "Frączek</w>": 31086,
  "Fu": 15256,
  "Ful": 28962,
  "Fun": 4162,
  "Funda": 19068,
  "Fundacja</w>": 14002,
  "Fundacji</w>": 11580,
  "Fundację</w>": 30949,
  "Fundu": 6005,
  "Fundusz</w>": 12408,
  "Fundusze</w>": 40323,
  "Funduszem</w>": 42605,
  "Funduszu</w>": 8431,
  "Funduszy</w>": 46844,
  "Funk": 14282,
  "Funkcjon": 47858,
  "Funkcjonariusze</w>": 18752,
  "Fur": 18433,
  "Fut": 29570,
  "G": 2225,
  "G</w>": 1099,
  "GA": 9855,
  "GA</w>": 12064,
  "GALER": 38485,
  "GALERIA</w>": 47195,
  "GAR": 18835,
  "GARA": 39681,
  "GARSO": 38903,
  "GARSONIERA</w>": 48600,
  "GAZ</w>": 19362,
  "GB</w>": 36243,
  "GC</w>": 18374,
  "GDD": 35011,
  "GDDKiA</w>": 36016,
  "GE": 15790,
  "GE</w>": 37044,
  "GEG</w>": 31835,
  "GG</w>": 46030,
  "GI": 12386,
  "GI</w>": 23467,
  "GIE": 19418,
  "GIL": 49451,
  "GK</w>": 20935,
  "GKS</w>": 9639,
  "GM</w>": 17755,
  "GMT</w>": 27105,
  "GNIE": 35848,
  "GO": 6790,
  "GO</w>": 9952,
  "GOK</w>": 21545,
  "GOPR</w>": 32227,
  "GOR": 32606,
  "GORZ": 42922,
  "GP</w>": 23860,
  "GRA": 17414,
  "GRE": 47360,
  "GRO": 16587,
  "GRU": 25594,
  "GRUPA</w>": 43485,
  "GRZE": 29122,
  "GRZY": 49565,
  "GS</w>": 36575,
  "GSM</w>": 33067,
  "GU": 24339,
  "GUS</w>": 29011,
  "GW</w>": 23788,
  "Ga": 3202,
  "Gabi": 38776,
  "Gabi</w>": 31805,
  "Gabrie": 15477,
  "Gabriel</w>": 33596,
  "Gabriela</w>": 23968,
  "Gabry": 30695,
  "Gacek</w>": 32530,
  "Gad": 41539,
  "Gadu</w>": 37654,
  "Gaj": 13180,
  "Gaj</w>": 47265,
  "Gajda</w>": 39586,
  "Gajewski</w>": 37108,
  "Gal": 11859,
  "Gala</w>": 43544,
  "Galeria</w>": 21626,
  "Galerii</w>": 15077,
  "Gali": 11641,
  "Galicja</w>": 36984,
  "Galicji</w>": 30334,
  "Gam": 28837,
  "Gan": 19226,
  "Gancar": 41718,
  "Gar": 6297,
  "Garba": 39641,
  "Garbar": 12670,
  "Garbarni</w>": 38417,
  "Garbarnia</w>": 21328,
  "Garbarz</w>": 41385,
  "Gatu": 35973,
  "Gau": 29838,
  "Gaw": 14638,
  "Gaweł</w>": 48722,
  "Gawlik</w>": 38318,
  "Gawro": 23367,
  "Gawron</w>": 41636,
  "Gaz": 24347,
  "Gaz</w>": 28640,
  "Gaze": 5675,
  "Gazecie</w>": 14909,
  "Gazeta</w>": 11086,
  "Gazety</w>": 9760,
  "Gazetą</w>": 44071,
  "Gazetę</w>": 40272,
  "Gał": 18186,
  "Gd</w>": 24386,
  "Gda": 4256,
  "Gdań": 5507,
  "Gdańsk</w>": 8997,
  "Gdańska</w>": 10071,
  "Gdański</w>": 26934,
  "Gdańskiego</w>": 27935,
  "Gdańskiej</w>": 20831,
  "Gdańskim</w>": 31609,
  "Gdańsku</w>": 7810,
  "Gdy": 4328,
  "Gdy</w>": 4440,
  "Gdyby</w>": 6325,
  "Gdybym</w>": 21278,
  "Gdybyśmy</w>": 26194,
  "Gdyni</w>": 9740,
  "Gdynia</w>": 13240,
  "Gdzie": 32568,
  "Gdzie</w>": 2018,
  "Gdzieś</w>": 40191,
  "Gdów</w>": 46791,
  "Ge": 4281,
  "Gel": 35524,
  "Gen": 18029,
  "Gen</w>": 46153,
  "Gene": 7176,
  "General": 10183,
  "General</w>": 41145,
  "Generalna</w>": 44301,
  "Generalnego</w>": 30665,
  "Generalnej</w>": 28141,
  "Generalnie</w>": 22391,
  "Generalny</w>": 47669,
  "Generał</w>": 35999,
  "Genewie</w>": 46668,
  "Genowe": 36904,
  "Genowefa</w>": 44548,
  "Geo": 46354,
  "Geode": 43614,
  "Geor": 13612,
  "George</w>": 18154,
  "Ger": 12077,
  "Gerar": 33121,
  "Gerard</w>": 42464,
  "Gere": 34694,
  "Gi": 5951,
  "Gie": 6522,
  "Gier": 12594,
  "Gierek</w>": 48261,
  "Gierka</w>": 43369,
  "Giertych</w>": 32014,
  "Giertycha</w>": 46197,
  "Giewon": 32811,
  "Gieł": 20293,
  "Giełda</w>": 41638,
  "Gigan": 49983,
  "Gil": 18406,
  "Gil</w>": 33262,
  "Gim": 5711,
  "Gim</w>": 34270,
  "Gimnaz": 6011,
  "Gimnazj": 49738,
  "Gimnazja": 36963,
  "Gimnazjaliści</w>": 47342,
  "Gimnazjum</w>": 6497,
  "Gin": 35501,
  "Gio": 37969,
  "Giovan": 42491,
  "Giza</w>": 41563,
  "Gl": 23166,
  "Gla": 19522,
  "Glas": 34958,
  "Glasgow</w>": 36026,
  "Gle": 31126,
  "Gli": 7526,
  "Glinik</w>": 26545,
  "Gliwic</w>": 32877,
  "Gliwicach</w>": 23657,
  "Gliwice</w>": 20339,
  "Glob": 41967,
  "Global</w>": 47048,
  "Glow": 38562,
  "Glownia</w>": 40208,
  "Gmin": 9323,
  "Gmin</w>": 25048,
  "Gmina</w>": 8748,
  "Gminne</w>": 42843,
  "Gminnego</w>": 19028,
  "Gminnej</w>": 40788,
  "Gminny</w>": 24144,
  "Gminnym</w>": 34758,
  "Gminy</w>": 6551,
  "Gnia": 46975,
  "Gnie": 14350,
  "Gniez": 20187,
  "Gniezna</w>": 36771,
  "Gniezno</w>": 29227,
  "Gnieźnie</w>": 28462,
  "Gno": 30212,
  "Go": 3707,
  "Go</w>": 25248,
  "God": 13228,
  "Godz</w>": 30177,
  "Godzi": 22047,
  "Godzina</w>": 49432,
  "Goe": 30306,
  "Gog": 32596,
  "Gol": 8629,
  "Gol</w>": 45735,
  "Gola</w>": 49277,
  "Gold": 33210,
  "Golden</w>": 44764,
  "Gole": 49706,
  "Gole</w>": 34109,
  "Goleni": 38111,
  "Gollob</w>": 25354,
  "Golonka</w>": 43246,
  "Gomb": 34328,
  "Gomu": 25736,
  "Gon": 17127,
  "Gontar": 40288,
  "Gontarek</w>": 45332,
  "Google</w>": 22532,
  "Gor": 5227,
  "Gorce</w>": 24461,
  "Gorczyca</w>": 49411,
  "Gorli": 7899,
  "Gorlic</w>": 22149,
  "Gorlicach</w>": 17484,
  "Gorlice</w>": 16446,
  "Gormenghast</w>": 34676,
  "Gory": 32163,
  "Gorz": 29482,
  "Gorzej</w>": 28455,
  "Gorzowie</w>": 45623,
  "Gorzy": 23095,
  "Gorzyce</w>": 33381,
  "Gorzów</w>": 28918,
  "Gos": 4622,
  "Gosia</w>": 27575,
  "Gosie": 44810,
  "Gospoda": 10365,
  "Gospodar": 5778,
  "Gospodarczego</w>": 35384,
  "Gospodarczej</w>": 22151,
  "Gospodarka</w>": 35317,
  "Gospodarki</w>": 8524,
  "Gospodarstwa</w>": 32911,
  "Gospodarz</w>": 49886,
  "Gospodarze</w>": 11242,
  "Gospody": 27702,
  "Gospodyń</w>": 39612,
  "Gosty": 21124,
  "Gosła": 44326,
  "Got": 15737,
  "Goł": 12327,
  "Goła": 29031,
  "Gołu": 39563,
  "Gołą": 28302,
  "Gołąb</w>": 46253,
  "Gołę": 23593,
  "Gołębi": 44464,
  "Goś": 22042,
  "Gości": 16373,
  "Gościbia</w>": 38664,
  "Goście</w>": 11204,
  "Gościem</w>": 47742,
  "Gr": 40939,
  "Gra": 3615,
  "Gra</w>": 17091,
  "Grab": 10377,
  "Grabowska</w>": 47590,
  "Grabowski</w>": 21109,
  "Gracz</w>": 13070,
  "Gracze</w>": 43656,
  "Grad</w>": 48152,
  "Grafi": 29708,
  "Graj": 45963,
  "Grają</w>": 40753,
  "Grali</w>": 46359,
  "Graliśmy</w>": 47043,
  "Gramy</w>": 46479,
  "Gran": 9566,
  "Grand</w>": 11183,
  "Granicznej</w>": 19195,
  "Gratu": 47079,
  "Gratul": 48769,
  "Grał</w>": 39853,
  "Graży": 45517,
  "Grażyna</w>": 12361,
  "Grażyny</w>": 45533,
  "Gre": 6347,
  "Grecja</w>": 31715,
  "Grecji</w>": 18831,
  "Grecy</w>": 46888,
  "Green": 35361,
  "Green</w>": 48820,
  "Greg</w>": 39330,
  "Gren": 40098,
  "Gri": 16581,
  "Grigo</w>": 49197,
  "Gro": 5076,
  "Grob": 27820,
  "Grobe": 32432,
  "Grobelny</w>": 42614,
  "Groc": 16440,
  "Grocli": 28080,
  "Groclin</w>": 25311,
  "Groclinu</w>": 35052,
  "Grod": 35010,
  "Grodz": 23550,
  "Grodzi": 12801,
  "Grodzisk</w>": 29864,
  "Grodziska</w>": 46003,
  "Grodzisko</w>": 42787,
  "Grodzisku</w>": 37278,
  "Grom": 22730,
  "Grom</w>": 30605,
  "Groma": 37927,
  "Gron": 25982,
  "Gronkiewicz</w>": 41370,
  "Group</w>": 30087,
  "Groz": 19045,
  "Grozi</w>": 25412,
  "Groź": 36680,
  "Gru": 4073,
  "Grudzią": 24166,
  "Grudziądz</w>": 42531,
  "Grun": 11084,
  "Grunt</w>": 41517,
  "Grunwal": 13566,
  "Grunwald</w>": 34358,
  "Grunwaldzkiej</w>": 35270,
  "Grupa</w>": 7278,
  "Grupy</w>": 15058,
  "Grupę</w>": 47715,
  "Gruszka</w>": 27098,
  "Gruzji</w>": 33970,
  "Gry": 9196,
  "Gry</w>": 44210,
  "Grybo": 36111,
  "Gryf</w>": 31440,
  "Grze": 3395,
  "Grzego": 11310,
  "Grzegor": 3970,
  "Grzegorz": 47290,
  "Grzegorz</w>": 3991,
  "Grzegorza</w>": 12959,
  "Grzegorze": 37349,
  "Grzegorzem</w>": 42655,
  "Grzegó": 26206,
  "Grzegórze": 31252,
  "Grzelak</w>": 41187,
  "Grzesiek</w>": 48320,
  "Grzesik</w>": 48817,
  "Grześ": 38249,
  "Grzy": 11173,
  "Grzyb": 38559,
  "Grzyb</w>": 25474,
  "Gród</w>": 46243,
  "Grą": 47225,
  "Gręb": 31777,
  "Grębał": 46376,
  "Gu": 5925,
  "Gubał": 39855,
  "Guber": 46025,
  "Guc": 46895,
  "Gui": 42347,
  "Guin": 45445,
  "Gul": 43774,
  "Gum": 35711,
  "Gun": 43697,
  "Gur": 26677,
  "Gusta": 43223,
  "Gustaw</w>": 33014,
  "Gut": 42231,
  "Guzi": 47378,
  "Guzik</w>": 26707,
  "Gwar": 14558,
  "Gwar</w>": 49354,
  "Gwaran": 18677,
  "Gwarancja</w>": 41003,
  "Gwardia</w>": 26815,
  "Gwardii</w>": 37058,
  "Gwał": 49177,
  "Gwi": 23372,
  "Gwia": 10869,
  "Gwiazd": 27073,
  "Gwiazda</w>": 26451,
  "Gwiazdy</w>": 23238,
  "Gwiazdą</w>": 41697,
  "Gwiezd": 48853,
  "Gy": 44737,
  "GÓ": 13947,
  "GÓR": 29194,
  "GÓRA</w>": 32755,
  "GÓRZE</w>": 49724,
  "Gó": 4978,
  "Gór": 3866,
  "Gór</w>": 30939,
  "Góra</w>": 10049,
  "Górach</w>": 38765,
  "Góral": 33935,
  "Góral</w>": 40210,
  "Górale</w>": 44243,
  "Górali</w>": 49776,
  "Górecki</w>": 34516,
  "Górka</w>": 26507,
  "Górki</w>": 40270,
  "Górna</w>": 26968,
  "Górne</w>": 40989,
  "Górnego</w>": 36314,
  "Górnej</w>": 25039,
  "Górniak</w>": 48887,
  "Górnicza</w>": 48888,
  "Górniczej</w>": 28130,
  "Górniczo</w>": 38748,
  "Górnik</w>": 9055,
  "Górnika</w>": 14088,
  "Górnikiem</w>": 26164,
  "Górnoślą": 31237,
  "Górny</w>": 34631,
  "Górnych</w>": 49707,
  "Górnym</w>": 40152,
  "Górski</w>": 20934,
  "Górskiego</w>": 39577,
  "Góry</w>": 12319,
  "Górze</w>": 13618,
  "Górą</w>": 39938,
  "Górę</w>": 27991,
  "Gą": 10349,
  "Gąsi": 35892,
  "Gąsie": 19914,
  "Gąsienica</w>": 27317,
  "Gąsior</w>": 36453,
  "Gę": 19428,
  "GŁA": 43438,
  "GŁO": 41870,
  "Gł": 4032,
  "Gład": 27581,
  "Głady": 37434,
  "Gło": 9380,
  "Głod": 39283,
  "Głog": 33864,
  "Głogo": 34616,
  "Głogów</w>": 48207,
  "Głos": 8064,
  "Głos</w>": 16705,
  "Głosowanie</w>": 16384,
  "Głosowało</w>": 16063,
  "Głosu</w>": 35214,
  "Głow": 35280,
  "Głowa": 17462,
  "Głowa</w>": 47816,
  "Głowacki</w>": 27957,
  "Głowackiego</w>": 43231,
  "Głoś": 45313,
  "Głu": 15886,
  "Głów": 5209,
  "Główna</w>": 27690,
  "Główne</w>": 26051,
  "Głównego</w>": 17320,
  "Głównej</w>": 19762,
  "Głównie</w>": 32220,
  "Główny</w>": 13600,
  "Głównym</w>": 11692,
  "Głównymi</w>": 49544,
  "Główną</w>": 24643,
  "Głę": 28439,
  "Głębo": 34971,
  "H": 44,
  "H</w>": 1037,
  "HA": 32096,
  "HAK</w>": 47691,
  "HC</w>": 45848,
  "HD</w>": 47040,
  "HE": 33551,
  "HI": 24645,
  "HIV</w>": 33429,
  "HL</w>": 20969,
  "HM</w>": 28394,
  "HO": 21121,
  "HP</w>": 13656,
  "HS</w>": 46527,
  "HT": 39658,
  "HTML</w>": 49453,
  "HTS</w>": 43140,
  "HU": 20081,
  "HY": 25423,
  "HYDRA": 27532,
  "HYDRAULI": 28601,
  "HYDRAULIKA</w>": 35533,
  "Ha": 4930,
  "Ha</w>": 48607,
  "Hab": 31989,
  "Habeck</w>": 23446,
  "Had": 33598,
  "Haj": 12176,
  "Hajdu": 21130,
  "Hajduk</w>": 27414,
  "Hal": 9239,
  "Hala</w>": 33605,
  "Hali": 9946,
  "Hali</w>": 29633,
  "Halina</w>": 13182,
  "Haliny</w>": 47409,
  "Hall</w>": 34748,
  "Hallera</w>": 49553,
  "Ham": 12371,
  "Hamil": 41575,
  "Hampel</w>": 44887,
  "Han": 7210,
  "Hanco": 45491,
  "Hand": 9652,
  "Handel</w>": 47668,
  "Handl": 45756,
  "Handlowego</w>": 40548,
  "Handlowej</w>": 29942,
  "Handlowy</w>": 48982,
  "Handlu</w>": 31407,
  "Hanka</w>": 37714,
  "Hanna": 38829,
  "Hanna</w>": 16849,
  "Hanny</w>": 40465,
  "Hans</w>": 19684,
  "Hansa</w>": 41159,
  "Har": 6599,
  "Hara": 49684,
  "Harcer": 22792,
  "Harcerstwa</w>": 49090,
  "Harry</w>": 27099,
  "Harun</w>": 41507,
  "Hasło</w>": 47846,
  "Hau": 16509,
  "Haus": 29112,
  "Hausner</w>": 48564,
  "Haw": 33135,
  "Hay": 46881,
  "He": 4596,
  "He</w>": 43034,
  "Heb": 38672,
  "Hei": 33644,
  "Heide": 47978,
  "Hein": 27952,
  "Hej": 46735,
  "Hej</w>": 21136,
  "Hejna": 23705,
  "Hejnał</w>": 32121,
  "Hel": 12156,
  "Hele": 11742,
  "Helena</w>": 16957,
  "Heleny</w>": 36804,
  "Heli": 29760,
  "Helsi": 37424,
  "Helu</w>": 45661,
  "Hen": 5039,
  "Heniek</w>": 49863,
  "Henry": 5705,
  "Henry</w>": 22889,
  "Henryk</w>": 7225,
  "Henryka</w>": 12179,
  "Her": 6831,
  "Herb</w>": 39145,
  "Herce": 45508,
  "Hercegowi": 49767,
  "Herman</w>": 38644,
  "Hero": 49756,
  "Het": 18946,
  "Hetman</w>": 30226,
  "Hi": 5298,
  "Hie": 31034,
  "Hiero": 39248,
  "Hil": 18218,
  "Hill</w>": 47546,
  "Him": 34041,
  "Hin": 37152,
  "Hindu": 47897,
  "Hipo": 42887,
  "Hipoli": 49815,
  "Hir": 39589,
  "Hist": 6776,
  "Histor": 19126,
  "Historia</w>": 9408,
  "Historii</w>": 24403,
  "History": 17098,
  "Hisz": 18546,
  "Hiszpa": 8417,
  "Hiszpan</w>": 48457,
  "Hiszpania</w>": 17863,
  "Hiszpanie</w>": 39766,
  "Hiszpanii</w>": 12033,
  "Hit": 15200,
  "Hitler</w>": 33025,
  "Hitlera</w>": 27540,
  "Ho": 11031,
  "Hod": 20530,
  "Hodow": 46296,
  "Hoff": 33451,
  "Hoj": 43213,
  "Hoke": 31700,
  "Hol": 10248,
  "Holan": 10793,
  "Holandia</w>": 23246,
  "Holandii</w>": 14734,
  "Holding</w>": 47440,
  "Holen": 21036,
  "Holend": 28726,
  "Holendrzy</w>": 42974,
  "Hollywo": 33514,
  "Hollywood</w>": 36337,
  "Holocau": 47363,
  "Holszty": 43418,
  "Hon": 10631,
  "Hong": 40495,
  "Hongkon": 42416,
  "Honor": 16403,
  "Honorowego</w>": 44528,
  "Honorowy</w>": 43259,
  "Hop": 43668,
  "Hor": 13997,
  "Hos": 27096,
  "Hospicjum</w>": 43962,
  "Hotel</w>": 29021,
  "Hotelu</w>": 42395,
  "Hou": 32275,
  "House</w>": 41596,
  "Houston</w>": 39864,
  "Hoł": 33771,
  "Hry": 41357,
  "Hu": 4764,
  "Hubert</w>": 21201,
  "Hucie</w>": 21167,
  "Huf": 30287,
  "Hufca</w>": 47876,
  "Hugo</w>": 47081,
  "Hum": 36032,
  "Humani": 30903,
  "Hun": 29328,
  "Hur": 28551,
  "Hura": 19360,
  "Huragan</w>": 23118,
  "Husa": 39364,
  "Hut": 9264,
  "Huta</w>": 14134,
  "Hutniczej</w>": 47463,
  "Hutnik</w>": 16865,
  "Hutnika</w>": 25721,
  "Huty</w>": 16679,
  "Hy": 11634,
  "Hydro": 35514,
  "I": 2899,
  "I</w>": 1056,
  "IA": 47889,
  "IA</w>": 10713,
  "IAR</w>": 36179,
  "IBM</w>": 41907,
  "IE": 3332,
  "IE</w>": 12065,
  "IEC</w>": 37585,
  "IFN</w>": 42036,
  "II": 14528,
  "II</w>": 2587,
  "III": 39370,
  "III</w>": 3706,
  "IK</w>": 41756,
  "IN": 6362,
  "INF</w>": 14725,
  "ING</w>": 25211,
  "INST": 27290,
  "INSTALA": 31437,
  "INSTALACJE</w>": 36737,
  "INTER": 42559,
  "IO</w>": 42982,
  "IP</w>": 28711,
  "IPN</w>": 15946,
  "IS": 10136,
  "IS</w>": 43151,
  "ISBN</w>": 29193,
  "ISO</w>": 16075,
  "IT</w>": 36716,
  "IV</w>": 4911,
  "IX</w>": 6723,
  "Ich</w>": 6210,
  "Id": 36892,
  "Ide": 20930,
  "Idea</w>": 26584,
  "Iden": 47529,
  "Idzie</w>": 45716,
  "Idąc</w>": 47203,
  "Iglo": 26031,
  "Igloopol</w>": 39791,
  "Igna": 14522,
  "Ignacego</w>": 35742,
  "Ignacy</w>": 29075,
  "Igo": 40318,
  "Igor</w>": 24673,
  "Igoło": 48425,
  "Igrzy": 20875,
  "Igrzysk</w>": 40267,
  "Igrzyska</w>": 42903,
  "Igrzyskach</w>": 48944,
  "Ikselka</w>": 15918,
  "Il": 17322,
  "Ile</w>": 11964,
  "Ilona</w>": 36860,
  "Ilość</w>": 42299,
  "Ilu": 34712,
  "Ilu</w>": 39911,
  "Im": 7750,
  "Im</w>": 15014,
  "Image</w>": 21157,
  "Imię</w>": 36070,
  "Imperium</w>": 34966,
  "Impre": 14244,
  "Imprez": 21062,
  "Impreza</w>": 15310,
  "Imprezę</w>": 30468,
  "In": 2665,
  "In</w>": 15307,
  "Inaczej</w>": 17211,
  "Inaugu": 41871,
  "Indi": 13470,
  "Indiach</w>": 31238,
  "Indian</w>": 32280,
  "Indiana</w>": 46541,
  "Indie</w>": 36444,
  "Indii</w>": 25880,
  "Indo": 38132,
  "Indu": 49319,
  "Indywidu": 24993,
  "Inform": 20786,
  "Informa": 7180,
  "Informacja</w>": 23727,
  "Informacje</w>": 16024,
  "Informacji</w>": 16524,
  "Informatyki</w>": 48771,
  "Informuję</w>": 24323,
  "Infra": 22262,
  "Infrastruktury</w>": 26496,
  "Ini": 14060,
  "Inicj": 33658,
  "Inicja": 17591,
  "Inicjaty": 19061,
  "Inicjatyw</w>": 30649,
  "Inicjatywa</w>": 37409,
  "Inkowski</w>": 46335,
  "Inna</w>": 20676,
  "Inne</w>": 12336,
  "Innego</w>": 44337,
  "Inni</w>": 18739,
  "Inny</w>": 22268,
  "Innym</w>": 24107,
  "Innymi</w>": 36394,
  "Inną</w>": 36153,
  "Inow": 27548,
  "Inowrocła": 28781,
  "Inowrocław</w>": 45563,
  "Inspe": 9622,
  "Inspekcja</w>": 39017,
  "Inspekcji</w>": 21102,
  "Inspektor</w>": 37686,
  "Inspektorat</w>": 39655,
  "Inspektoratu</w>": 33191,
  "Instal": 36750,
  "Institu": 38627,
  "Instru": 26615,
  "Instytu": 6592,
  "Instytucie</w>": 21759,
  "Instytut</w>": 14515,
  "Instytutu</w>": 10198,
  "Inte": 13254,
  "Integra": 27497,
  "Integracji</w>": 25061,
  "Inteligen": 48669,
  "Inten": 35002,
  "Inter": 5318,
  "Inter</w>": 24071,
  "Intere": 17523,
  "Interes": 29102,
  "Interesuje</w>": 44748,
  "Interna": 17347,
  "International</w>": 21215,
  "Interne": 9184,
  "Internecie</w>": 16658,
  "Internet</w>": 14253,
  "Internetu</w>": 15171,
  "Inve": 31902,
  "Invest": 49227,
  "Inwali": 39562,
  "Inwalidów</w>": 45004,
  "Inwe": 9100,
  "Inwesto": 36596,
  "Inwestor</w>": 37945,
  "Inwestorzy</w>": 45733,
  "Inwesty": 11451,
  "Inwestycja</w>": 21009,
  "Inwestycje</w>": 38251,
  "Inwestycji</w>": 41861,
  "Inżynie": 24270,
  "Inżynierii</w>": 47592,
  "Ir": 26935,
  "Ira": 9617,
  "Irak</w>": 39679,
  "Iraku</w>": 14191,
  "Iran</w>": 46514,
  "Iranu</w>": 48835,
  "Ire": 8299,
  "Irena</w>": 14645,
  "Irene": 14185,
  "Ireneusz</w>": 16398,
  "Ireneusza</w>": 46170,
  "Ireny</w>": 44300,
  "Irlan": 12790,
  "Irland": 44221,
  "Irlandia</w>": 34440,
  "Irlandii</w>": 20379,
  "Is": 17148,
  "Isa": 40099,
  "Isk": 11480,
  "Iskra</w>": 14307,
  "Iskry</w>": 35299,
  "Isla": 46156,
  "Islan": 40397,
  "Ist": 7989,
  "Istnieje</w>": 16005,
  "Istnieją</w>": 29539,
  "Istot": 17078,
  "Istotne</w>": 43812,
  "Istotnie</w>": 46730,
  "It</w>": 44783,
  "Italii</w>": 49001,
  "Iw": 28595,
  "Iwa": 18415,
  "Iwan": 24840,
  "Iwan</w>": 29560,
  "Iwański</w>": 48761,
  "Iwo": 22676,
  "Iwon": 35935,
  "Iwon</w>": 38137,
  "Iwona</w>": 12082,
  "Iz": 3673,
  "Iza": 11913,
  "Iza</w>": 29109,
  "Izabe": 38077,
  "Izabela</w>": 17231,
  "Izba</w>": 12548,
  "Izbie</w>": 11967,
  "Izbo</w>": 6485,
  "Izby</w>": 8772,
  "Izbę</w>": 18304,
  "Izdeb": 36042,
  "Izo": 28395,
  "Izolator</w>": 49652,
  "Izra": 9599,
  "Izrael": 37204,
  "Izrael</w>": 24121,
  "Izraela</w>": 17881,
  "Izraelu</w>": 31745,
  "J": 46,
  "J</w>": 1071,
  "JA": 8770,
  "JA</w>": 14248,
  "JACEK</w>": 35006,
  "JAK</w>": 38720,
  "JAN": 29499,
  "JAR": 33894,
  "JE": 8317,
  "JE</w>": 29061,
  "JEC</w>": 36603,
  "JED": 24681,
  "JEDNO": 27417,
  "JEDNOPOKOJOWE</w>": 29985,
  "JEMY</w>": 42190,
  "JERZY</w>": 38412,
  "JEST</w>": 47875,
  "JK</w>": 34246,
  "JKS</w>": 41667,
  "JM": 17256,
  "JMĘ</w>": 18592,
  "JO": 18918,
  "JP</w>": 47317,
  "JS</w>": 32731,
  "JU": 21114,
  "Ja": 2170,
  "Ja</w>": 4414,
  "Jabło": 17551,
  "Jabłon": 17736,
  "Jabłonka</w>": 40071,
  "Jabłoński</w>": 24394,
  "Jac": 14417,
  "Jacek</w>": 2129,
  "Jach": 31443,
  "Jack": 28257,
  "Jack</w>": 38693,
  "Jacka</w>": 10735,
  "Jackiem</w>": 34234,
  "Jackson</w>": 42514,
  "Jacques</w>": 41796,
  "Jad": 7378,
  "Jadwi": 9497,
  "Jadwiga</w>": 13621,
  "Jadwigi</w>": 19792,
  "Jagie": 39251,
  "Jagiel": 9161,
  "Jagiello": 9949,
  "Jagiellonia</w>": 40937,
  "Jagiellońskiego</w>": 22201,
  "Jagiellońskiej</w>": 35552,
  "Jagiellońskim</w>": 37337,
  "Jagieł": 21796,
  "Jagiełło</w>": 37129,
  "Jagiełły</w>": 41071,
  "Jagoda</w>": 49106,
  "Jagu": 34276,
  "Jaj": 43179,
  "Jak": 14362,
  "Jak</w>": 2912,
  "Jaka</w>": 17900,
  "Jakby</w>": 22275,
  "Jaki": 26582,
  "Jaki</w>": 14494,
  "Jakie": 28722,
  "Jakie</w>": 9733,
  "Jakieś</w>": 49098,
  "Jakiś</w>": 33248,
  "Jako</w>": 2857,
  "Jakoś</w>": 36092,
  "Jaku": 5373,
  "Jakub": 14294,
  "Jakub</w>": 7242,
  "Jakuba</w>": 20169,
  "Jakubowska</w>": 44876,
  "Jakubowski</w>": 30613,
  "Jaką</w>": 37268,
  "Jakże</w>": 35230,
  "Jam": 20235,
  "James</w>": 24255,
  "Jamesa</w>": 45805,
  "Jamróz</w>": 45237,
  "Jan": 7466,
  "Jan</w>": 3650,
  "Jana</w>": 4683,
  "Janas</w>": 23245,
  "Janasa</w>": 46918,
  "Jane": 31234,
  "Janek</w>": 30163,
  "Janem</w>": 22452,
  "Jani": 18069,
  "Janicki</w>": 39181,
  "Janie</w>": 43810,
  "Janik</w>": 21578,
  "Janina</w>": 12420,
  "Janiny</w>": 35393,
  "Janka</w>": 48120,
  "Jankowski</w>": 17161,
  "Jano": 36210,
  "Janowi</w>": 26592,
  "Janowski</w>": 35636,
  "Janu": 27490,
  "Janus</w>": 37233,
  "Janusz": 49885,
  "Janusz</w>": 5260,
  "Janusza</w>": 11818,
  "Januszem</w>": 39241,
  "Japo": 8634,
  "Japonia</w>": 25076,
  "Japonii</w>": 14059,
  "Japończycy</w>": 43705,
  "Jar": 9245,
  "Jara": 44970,
  "Jare": 34116,
  "Jarek</w>": 15683,
  "Jarmu": 39061,
  "Jaro": 4452,
  "Jarocin</w>": 45482,
  "Jarocinie</w>": 49806,
  "Jarosz</w>": 21677,
  "Jarosław</w>": 6437,
  "Jarosława</w>": 17458,
  "Jarosławia</w>": 43516,
  "Jarosławiu</w>": 40527,
  "Jarpen</w>": 49369,
  "Jaruze": 26865,
  "Jaruzelski</w>": 45095,
  "Jaruzelskiego</w>": 49500,
  "Jarzabek</w>": 43524,
  "Jarzą": 47651,
  "Jarzę": 40254,
  "Jas": 12350,
  "Jasi": 16782,
  "Jasie": 25410,
  "Jasiński</w>": 27010,
  "Jask": 22432,
  "Jaskier": 40839,
  "Jaskółek</w>": 43202,
  "Jasne</w>": 35085,
  "Jasnej</w>": 32827,
  "Jasną</w>": 42080,
  "Jason</w>": 46878,
  "Jastrzą": 43330,
  "Jastrzę": 12741,
  "Jastrzębia</w>": 40365,
  "Jastrzębie</w>": 31895,
  "Jastrzębiu</w>": 48910,
  "Jastrzębski</w>": 46484,
  "Jasła</w>": 43501,
  "Jasło</w>": 23506,
  "Jawo": 9554,
  "Jawor": 12034,
  "Jawor</w>": 36162,
  "Jaworski</w>": 17422,
  "Jaworz": 12341,
  "Jaworzna</w>": 30009,
  "Jaworznie</w>": 26981,
  "Jaworzno</w>": 23872,
  "Jaz": 17657,
  "Jazda</w>": 46579,
  "Jazz</w>": 25897,
  "Jał": 28814,
  "Jaś": 28902,
  "Jaśle</w>": 31043,
  "Je": 3620,
  "Jean</w>": 21212,
  "Jed": 3088,
  "Jede": 32660,
  "Jeden</w>": 2153,
  "Jedlicz": 38209,
  "Jedlicze</w>": 48364,
  "Jedna": 16438,
  "Jedna</w>": 11140,
  "Jednak</w>": 4198,
  "Jednakże</w>": 17036,
  "Jednego</w>": 38523,
  "Jedni</w>": 22814,
  "Jedno": 8155,
  "Jedno</w>": 17121,
  "Jednocześnie</w>": 10789,
  "Jednostka</w>": 38489,
  "Jednostki</w>": 31973,
  "Jedność</w>": 33331,
  "Jednym</w>": 10033,
  "Jedną</w>": 14469,
  "Jedy": 7411,
  "Jedyna</w>": 39280,
  "Jedyne</w>": 31926,
  "Jedynie</w>": 20868,
  "Jedynka</w>": 34166,
  "Jedyny</w>": 31439,
  "Jedynym</w>": 21210,
  "Jedyną</w>": 29097,
  "Jedziemy</w>": 46278,
  "Jego</w>": 4327,
  "Jeh": 44626,
  "Jej</w>": 6473,
  "Jel": 18676,
  "Jelcyn</w>": 43535,
  "Jelcyna</w>": 45567,
  "Jele": 21818,
  "Jelenia</w>": 38950,
  "Jeleniej</w>": 27402,
  "Jeleń</w>": 39285,
  "Jen": 20917,
  "Jer": 14717,
  "Jere": 36645,
  "Jerozoli": 19398,
  "Jerozolimie</w>": 42704,
  "Jerozolimy</w>": 39937,
  "Jersey</w>": 29884,
  "Jerz": 31254,
  "Jerze": 7643,
  "Jerzego</w>": 7968,
  "Jerzemu</w>": 43835,
  "Jerzman": 32478,
  "Jerzy": 25415,
  "Jerzy</w>": 4421,
  "Jerzym</w>": 27663,
  "Jesie": 14124,
  "Jesienią</w>": 23524,
  "Jesień</w>": 36233,
  "Jest</w>": 2812,
  "Jeste": 21782,
  "Jestem</w>": 5969,
  "Jesteś</w>": 26221,
  "Jesteśmy</w>": 8897,
  "Jesus</w>": 49478,
  "Jeszcze</w>": 5217,
  "Jew": 49470,
  "Jewu": 43137,
  "Jewuła</w>": 47039,
  "Jezi": 16563,
  "Jezie": 40319,
  "Jezio": 20014,
  "Jezior": 48295,
  "Jeziora</w>": 36352,
  "Jezioro</w>": 30104,
  "Jezu": 9040,
  "Jezu</w>": 43913,
  "Jezus</w>": 17303,
  "Jezusa</w>": 14770,
  "Jeśli</w>": 1999,
  "Jeź": 24354,
  "Jeż": 45945,
  "Jeżeli</w>": 4377,
  "Jeży": 41097,
  "Ji": 29103,
  "Jo": 3923,
  "Jo</w>": 32709,
  "Joa": 21731,
  "Joachim</w>": 45863,
  "Joan": 17644,
  "Joanna</w>": 7022,
  "Joanny</w>": 31637,
  "Jod": 20381,
  "Jodłow": 42889,
  "Joe</w>": 34526,
  "Joh": 8042,
  "Johan": 28278,
  "John": 27268,
  "John</w>": 14012,
  "Johna</w>": 27205,
  "Johnny</w>": 49141,
  "Johnson</w>": 36591,
  "Jol": 49801,
  "Jola</w>": 45580,
  "Jolan": 10529,
  "Jolanta</w>": 11962,
  "Jolanty</w>": 47509,
  "Jon": 35033,
  "Jona": 27817,
  "Jones</w>": 31198,
  "Jor": 7556,
  "Jordan": 20975,
  "Jordan</w>": 24284,
  "Jordana</w>": 33611,
  "Jordanów</w>": 41946,
  "Jork</w>": 40303,
  "Jorku</w>": 14688,
  "Jos": 18893,
  "Jose": 20497,
  "Jose</w>": 30321,
  "Joseph</w>": 38020,
  "Jour": 40003,
  "Journal</w>": 44291,
  "Jowi": 38043,
  "Jozef</w>": 41346,
  "Ju": 2985,
  "Juan</w>": 39879,
  "Jubi": 35567,
  "Jubile": 20426,
  "Jubileusz": 39377,
  "Jubileusz</w>": 33708,
  "Judy": 47472,
  "Jugosła": 19665,
  "Jugosławii</w>": 25688,
  "Jul": 30167,
  "Jul</w>": 21594,
  "Juli": 8192,
  "Julia</w>": 22196,
  "Julian</w>": 24409,
  "Juliana</w>": 42444,
  "Julii</w>": 47646,
  "Juliusz</w>": 26575,
  "Juliusza</w>": 33844,
  "Jun": 28159,
  "Jun</w>": 17120,
  "Junior": 37094,
  "Junior</w>": 40230,
  "Juniorzy</w>": 25954,
  "Juniorów</w>": 34286,
  "Jur": 11717,
  "Jura": 31384,
  "Juraj": 49744,
  "Jurek</w>": 16532,
  "Juri": 39863,
  "Jurka</w>": 41252,
  "Jury</w>": 22437,
  "Just": 25799,
  "Justowska</w>": 35906,
  "Justy": 31793,
  "Justyna</w>": 12890,
  "Juszcze": 47702,
  "Juszczyk</w>": 44297,
  "Jut": 12434,
  "Jutro</w>": 13149,
  "Jutrze": 19265,
  "Jutrzenka</w>": 24588,
  "Juve": 38519,
  "Juven": 25350,
  "Juventus</w>": 36318,
  "Już</w>": 4345,
  "Jó": 4016,
  "Józe": 4129,
  "Józef": 23998,
  "Józef</w>": 5331,
  "Józefa</w>": 7873,
  "Józefem</w>": 39896,
  "Józefowi</w>": 47085,
  "Jóźwi": 37739,
  "Jóźwiak</w>": 47172,
  "JĄ": 45751,
  "JĄ</w>": 43721,
  "JĘ": 39436,
  "JĘ</w>": 32991,
  "Ję": 11999,
  "Jęd": 10420,
  "Jędru": 34880,
  "Jędrze": 13256,
  "Jędrzej": 22797,
  "Jędrzejczak</w>": 41147,
  "Języ": 15107,
  "Język</w>": 24615,
  "K": 2831,
  "K</w>": 1033,
  "KA": 6132,
  "KA</w>": 4358,
  "KALI": 47031,
  "KAMIE": 42855,
  "KAN": 42440,
  "KAR": 10366,
  "KAR</w>": 49299,
  "KAT": 22583,
  "KATARZY": 49925,
  "KATOWICE</w>": 40899,
  "KAZI": 31200,
  "KAZIMIERZ</w>": 37130,
  "KB</w>": 43336,
  "KC</w>": 29180,
  "KE": 27914,
  "KE</w>": 21417,
  "KF</w>": 18331,
  "KG": 17325,
  "KGB</w>": 39266,
  "KGHM</w>": 30098,
  "KH</w>": 35515,
  "KI": 15640,
  "KI</w>": 5529,
  "KIE": 9164,
  "KIE</w>": 32820,
  "KIER</w>": 48878,
  "KIEROW": 26753,
  "KIEWICZ</w>": 33640,
  "KIN": 34517,
  "KK</w>": 23338,
  "KKS</w>": 31552,
  "KL</w>": 28537,
  "KLA": 35170,
  "KLI": 20971,
  "KLU": 32749,
  "KM</w>": 11235,
  "KMP</w>": 37721,
  "KN": 31184,
  "KN</w>": 28990,
  "KO": 3961,
  "KO</w>": 14205,
  "KOBIE": 49729,
  "KOLE": 44212,
  "KOMI": 33786,
  "KOMP": 28203,
  "KON": 16497,
  "KONTE": 44581,
  "KOPAR": 28610,
  "KOPARKOŁA": 39366,
  "KOPARKOŁADOW": 39417,
  "KOPARKOŁADOWARKA</w>": 46578,
  "KOR": 45444,
  "KOS": 45924,
  "KOSZY": 47559,
  "KOV</w>": 46063,
  "KOW": 22646,
  "KOW</w>": 23979,
  "KOWA</w>": 46053,
  "KOWICE</w>": 47041,
  "KOWSKI</w>": 37098,
  "KOZ": 46785,
  "KOZIO": 46035,
  "KOl</w>": 44064,
  "KOŁA": 35245,
  "KP</w>": 14695,
  "KPN</w>": 30342,
  "KPP</w>": 21252,
  "KR": 10955,
  "KRA": 10534,
  "KRAKOW</w>": 26401,
  "KRAKÓW</w>": 23132,
  "KRE": 25553,
  "KREDY": 39386,
  "KREDYTY</w>": 48381,
  "KRO": 28772,
  "KROWOD": 37835,
  "KROWODRZA</w>": 48955,
  "KRU": 47331,
  "KRUS</w>": 33393,
  "KRY": 30316,
  "KRZY": 22995,
  "KRZYSZTO": 38495,
  "KRZYSZTOF</w>": 43571,
  "KRÓ": 40050,
  "KS": 14292,
  "KS</w>": 3307,
  "KSI": 29895,
  "KSZ": 20401,
  "KSZO</w>": 22133,
  "KT": 10667,
  "KT</w>": 23439,
  "KTH</w>": 22429,
  "KTO": 41548,
  "KTU": 49677,
  "KTY": 44389,
  "KU": 6901,
  "KU</w>": 19903,
  "KUL": 27182,
  "KULTUR": 33264,
  "KULTURY</w>": 35655,
  "KUPI": 18926,
  "KUPIĘ</w>": 22224,
  "KUR": 28982,
  "KURS</w>": 45501,
  "KW": 22205,
  "KW</w>": 23618,
  "KWP</w>": 41655,
  "KWW</w>": 42832,
  "KZ": 44825,
  "Ka": 2297,
  "Ka</w>": 33418,
  "Kabar": 29315,
  "Kabare": 47014,
  "Kabaret</w>": 49811,
  "Kac": 18019,
  "Kacper</w>": 31454,
  "Kacz": 8121,
  "Kaczmar": 13614,
  "Kaczmarczyk</w>": 26869,
  "Kaczmarek</w>": 16045,
  "Kaczmarka</w>": 38147,
  "Kaczor</w>": 33285,
  "Kaczorowski</w>": 49059,
  "Kaczy": 24788,
  "Kaczyński</w>": 12397,
  "Kaczyńskiego</w>": 18902,
  "Kad": 13939,
  "Kade": 43029,
  "Kadra</w>": 31998,
  "Kai": 24288,
  "Kaiser": 46635,
  "Kaj": 22000,
  "Kaje": 35769,
  "Kajetan</w>": 42261,
  "Kal": 8640,
  "Kale": 36208,
  "Kalen": 33292,
  "Kaleta</w>": 46743,
  "Kali": 6440,
  "Kalifor": 26432,
  "Kalifornii</w>": 36470,
  "Kalinowski</w>": 33071,
  "Kalisz</w>": 20699,
  "Kalisza</w>": 30675,
  "Kaliszu</w>": 22003,
  "Kalwar": 15861,
  "Kalwari": 36096,
  "Kalwarii</w>": 23617,
  "Kalwaryj": 39238,
  "Kam": 32134,
  "Kame": 17612,
  "Kameru": 42823,
  "Kami": 5758,
  "Kamie": 18367,
  "Kamien": 24134,
  "Kamieni": 30108,
  "Kamienica</w>": 39521,
  "Kamienicy</w>": 48265,
  "Kamiennej</w>": 40883,
  "Kamień</w>": 34106,
  "Kamil</w>": 10127,
  "Kamila</w>": 16720,
  "Kamionka</w>": 46424,
  "Kamińska</w>": 41391,
  "Kamiński</w>": 16237,
  "Kamińskiego</w>": 41169,
  "Kampa": 30833,
  "Kampania</w>": 39282,
  "Kan": 6844,
  "Kana": 8659,
  "Kanada</w>": 34101,
  "Kanady</w>": 24948,
  "Kanadyj": 35008,
  "Kanadzie</w>": 26333,
  "Kanalizacji</w>": 34531,
  "Kanał</w>": 45243,
  "Kancelar": 37308,
  "Kancelaria</w>": 45750,
  "Kancelarii</w>": 20651,
  "Kandyda": 18366,
  "Kandydaci</w>": 36547,
  "Kandydat</w>": 45872,
  "Kania</w>": 25009,
  "Kano": 43806,
  "Kantor</w>": 31633,
  "Kantora</w>": 49559,
  "Kap": 16241,
  "Kapciuszek</w>": 28420,
  "Kape": 25064,
  "Kapi": 18952,
  "Kapita": 20689,
  "Kapitan</w>": 32621,
  "Kapli": 41779,
  "Kapusta</w>": 49348,
  "Kapuści": 43456,
  "Kar": 3651,
  "Kara": 12894,
  "Kara</w>": 40293,
  "Karate</w>": 40386,
  "Karcz": 35637,
  "Kardi": 47845,
  "Kardyna": 32533,
  "Kare": 47892,
  "Karie": 36115,
  "Kariera</w>": 26504,
  "Karkono": 37775,
  "Karl": 35477,
  "Karl</w>": 45817,
  "Karlik</w>": 45808,
  "Karmeli": 37282,
  "Karnego</w>": 45763,
  "Karo": 5118,
  "Karol": 34360,
  "Karol</w>": 8919,
  "Karola</w>": 13528,
  "Karolina</w>": 10299,
  "Karoliny</w>": 41679,
  "Karpa": 12697,
  "Karpat</w>": 41537,
  "Karpatia</w>": 43458,
  "Karpaty</w>": 24528,
  "Karpiński</w>": 44102,
  "Karta</w>": 30194,
  "Kartu": 19755,
  "Kartuzach</w>": 39435,
  "Kartuzy</w>": 42996,
  "Karty</w>": 26894,
  "Karwa": 38144,
  "Kary</w>": 30806,
  "Kasa</w>": 28125,
  "Kasi</w>": 41098,
  "Kasia": 47931,
  "Kasia</w>": 14173,
  "Kasp": 14290,
  "Kasper": 21645,
  "Kasperczak</w>": 45119,
  "Kasprzak</w>": 30129,
  "Kasprzy": 19371,
  "Kasprzyk</w>": 24473,
  "Kasy</w>": 25560,
  "Kasz": 28804,
  "Kaszu": 14653,
  "Kaszub": 31887,
  "Kat": 4845,
  "Kata": 23019,
  "Katarzy": 5810,
  "Katarzyna</w>": 6679,
  "Katarzyny</w>": 20458,
  "Katarzynę</w>": 46169,
  "Kate": 12480,
  "Kated": 34928,
  "Katedry</w>": 32049,
  "Kategor": 24879,
  "Kategoria</w>": 29380,
  "Kato": 14188,
  "Katoli": 16146,
  "Katolickiego</w>": 37763,
  "Katolickiej</w>": 44951,
  "Katowi": 25315,
  "Katowic</w>": 13629,
  "Katowicach</w>": 8686,
  "Katowice</w>": 9444,
  "Katy": 25957,
  "Kawa": 20983,
  "Kawa</w>": 39513,
  "Kawecki</w>": 13348,
  "Kaza": 26484,
  "Kazach": 20393,
  "Kazachstanu</w>": 36660,
  "Kazi": 4614,
  "Kazik</w>": 48329,
  "Kazimie": 18454,
  "Kazimiera</w>": 47223,
  "Kazimierz": 39999,
  "Kazimierz</w>": 6349,
  "Kazimierza</w>": 9927,
  "Kazimierzu</w>": 36644,
  "Kazno": 40679,
  "Kaznodzie": 41652,
  "Kaznodzieya</w>": 42705,
  "Kał": 36341,
  "Kału": 23117,
  "Kałużny</w>": 47861,
  "Kańczu": 47831,
  "Kaź": 26255,
  "Kaźmierczak</w>": 40297,
  "Każ": 4793,
  "Każda</w>": 12163,
  "Każde</w>": 21742,
  "Każdego</w>": 25273,
  "Każdy</w>": 6179,
  "Kcy": 37548,
  "Ke": 8639,
  "Keey</w>": 42034,
  "Kel": 26207,
  "Ken": 18572,
  "Kenne": 32765,
  "Kennedy</w>": 47537,
  "Ker": 28757,
  "Keri": 40239,
  "Kerio</w>": 41480,
  "Ki": 4146,
  "KiA</w>": 35699,
  "KiBoT</w>": 23096,
  "KiK</w>": 38897,
  "KiS</w>": 29092,
  "Kibi": 17014,
  "Kibice</w>": 20732,
  "Kie": 3100,
  "Kiedy</w>": 3238,
  "Kiedyś</w>": 10629,
  "Kiel": 7559,
  "Kielc</w>": 20906,
  "Kielcach</w>": 13862,
  "Kielce</w>": 14120,
  "Kier": 28956,
  "Kierow": 8050,
  "Kierowca</w>": 15157,
  "Kierowcy</w>": 19635,
  "Kierownictwo</w>": 41484,
  "Kierownik</w>": 25787,
  "Kieru": 31564,
  "Kierujący</w>": 38658,
  "Kieł": 18813,
  "Kiełbasa</w>": 45883,
  "Kij": 17585,
  "Kijowa</w>": 48526,
  "Kijowie</w>": 37089,
  "Kijów</w>": 37735,
  "Kil": 5696,
  "Kilińskiego</w>": 35650,
  "Kilka": 22660,
  "Kilka</w>": 7596,
  "Kilkadziesiąt</w>": 37525,
  "Kilkanaście</w>": 28609,
  "Kilku": 26733,
  "Kilku</w>": 30845,
  "Kim</w>": 21325,
  "Kin": 9850,
  "King</w>": 25658,
  "Kinga</w>": 17604,
  "Kingi</w>": 38066,
  "Kino</w>": 32854,
  "Kir": 27710,
  "Kisie": 24300,
  "Kl": 15105,
  "Kla": 5851,
  "Klag</w>": 48539,
  "Klasa</w>": 14778,
  "Klasy": 15452,
  "Klasy</w>": 43180,
  "Klasyfikacja</w>": 21038,
  "Klau": 16427,
  "Klaudi": 41941,
  "Klaudia</w>": 27061,
  "Klaus</w>": 44440,
  "Kle": 8673,
  "Klej": 48664,
  "Klemen": 31472,
  "Kli": 6528,
  "Klich</w>": 40524,
  "Klien": 16918,
  "Klienci</w>": 29914,
  "Klient</w>": 40350,
  "Klim": 19609,
  "Klimek</w>": 27446,
  "Kliniki</w>": 36469,
  "Klo": 23401,
  "Klon": 45244,
  "Klos": 23691,
  "Kloss</w>": 29620,
  "Klu": 5287,
  "Klub</w>": 7102,
  "Klubie</w>": 26186,
  "Klubu</w>": 8019,
  "Kluby</w>": 43245,
  "Klucz": 35925,
  "Klucze</w>": 38443,
  "Klusz": 49166,
  "Klę": 35202,
  "Kmi": 15270,
  "Kmie": 24992,
  "Kmiecik</w>": 31627,
  "Kmita</w>": 25500,
  "Kmity</w>": 36951,
  "Kna": 31582,
  "Knapi": 35820,
  "Knapik</w>": 39613,
  "Knu": 37023,
  "Ko": 2876,
  "Koali": 32443,
  "Koalicja</w>": 45950,
  "Kob": 30332,
  "Kobie": 7588,
  "Kobiet</w>": 24884,
  "Kobieta</w>": 14318,
  "Kobiety</w>": 16702,
  "Koby": 14939,
  "Koc": 28976,
  "Koch": 19473,
  "Kocha": 43371,
  "Kocham</w>": 36563,
  "Kochan": 22197,
  "Kochana</w>": 49960,
  "Kochanowskiego</w>": 35302,
  "Koci": 40164,
  "Kocie": 32557,
  "Kocmy": 38736,
  "Kocu": 40706,
  "Kod": 9687,
  "Kodek": 10472,
  "Kodeks</w>": 19958,
  "Kodeksie</w>": 45575,
  "Kodeksu</w>": 16307,
  "Kog": 26530,
  "Kogo</w>": 37824,
  "Kogut</w>": 36234,
  "Kokosz": 34315,
  "Kokoszka</w>": 43847,
  "Kol": 8396,
  "Kola": 23165,
  "Kolbu": 22184,
  "Kolbuszowianka</w>": 49207,
  "Kole": 11237,
  "Kole</w>": 38839,
  "Koledzy</w>": 31093,
  "Kolega</w>": 39460,
  "Kolegium</w>": 22403,
  "Kolei</w>": 33125,
  "Kolej": 4890,
  "Kolej</w>": 44880,
  "Koleja": 23416,
  "Kolejarz</w>": 23620,
  "Kolejarza</w>": 34427,
  "Kolejka</w>": 31005,
  "Kolejna</w>": 17026,
  "Kolejne</w>": 10707,
  "Kolejny</w>": 13504,
  "Kolejnym</w>": 20976,
  "Kolejną</w>": 29518,
  "Kolejo": 47597,
  "Kolejowej</w>": 49204,
  "Koleż": 42899,
  "Kolo": 16630,
  "Kolonia</w>": 37359,
  "Kolonii</w>": 37577,
  "Kolor": 33607,
  "Kolpor": 24964,
  "Kolporter</w>": 40289,
  "Kolu": 32689,
  "Kolum": 21335,
  "Kom": 9110,
  "Kombat": 34032,
  "Kombatantów</w>": 43952,
  "Komen": 6123,
  "Komenda</w>": 22426,
  "Komendan": 20072,
  "Komendant</w>": 26065,
  "Komendy</w>": 8986,
  "Komendzie</w>": 29847,
  "Komentarz</w>": 44523,
  "Komi": 7331,
  "Komis": 4902,
  "Komisari": 26472,
  "Komisariatu</w>": 37167,
  "Komisarz</w>": 49746,
  "Komisja</w>": 6222,
  "Komisje</w>": 19448,
  "Komisji</w>": 4748,
  "Komisją</w>": 35136,
  "Komisję</w>": 15421,
  "Komite": 7698,
  "Komitet</w>": 13543,
  "Komitetu</w>": 11809,
  "Komor": 15838,
  "Komorowski</w>": 37813,
  "Komp": 27024,
  "Kompa": 25631,
  "Kompanii</w>": 41115,
  "Kompu": 24917,
  "Komputer</w>": 46172,
  "Komu": 7014,
  "Komu</w>": 32445,
  "Komuna": 11890,
  "Komunalnego</w>": 43172,
  "Komunalnej</w>": 20813,
  "Komunalnych</w>": 29819,
  "Komuni": 46009,
  "Komunika": 11871,
  "Komunikacja</w>": 42240,
  "Komunikacji</w>": 17216,
  "Komó": 47812,
  "Kon": 2922,
  "Kona": 44299,
  "Konar": 33675,
  "Koncep": 30369,
  "Koncepcja</w>": 41985,
  "Koncer": 10832,
  "Koncert</w>": 14606,
  "Koncerty</w>": 45562,
  "Kondra": 34120,
  "Konfederacji</w>": 28502,
  "Konferen": 16769,
  "Konferencja</w>": 28838,
  "Konferencji</w>": 30430,
  "Konfli": 35480,
  "Konflikt</w>": 41238,
  "Kongre": 13219,
  "Kongres</w>": 30564,
  "Kongresu</w>": 30952,
  "Koni": 20140,
  "Konie": 11206,
  "Koniec</w>": 17169,
  "Konieczna</w>": 40695,
  "Konieczne</w>": 32889,
  "Konieczny</w>": 27055,
  "Konin</w>": 20615,
  "Konina</w>": 26527,
  "Koninie</w>": 19129,
  "Konkre": 45711,
  "Konkuren": 21135,
  "Konkurencja</w>": 49601,
  "Konkurencji</w>": 35375,
  "Konkurs</w>": 10792,
  "Konkursie</w>": 33624,
  "Konkursu</w>": 22882,
  "Konop": 18845,
  "Konopka</w>": 45610,
  "Konopnickiej</w>": 29840,
  "Konrad</w>": 12268,
  "Konrada</w>": 35763,
  "Konsekwen": 30736,
  "Konsekwencją</w>": 46199,
  "Konserwa": 21937,
  "Konstan": 13006,
  "Konstanty": 28260,
  "Konstanty</w>": 34387,
  "Konstantyno": 49150,
  "Konstru": 32086,
  "Konstytu": 8572,
  "Konstytucja</w>": 42895,
  "Konstytucji</w>": 21324,
  "Konstytucyjnego</w>": 17094,
  "Konstytucyjny</w>": 26028,
  "Konsu": 15110,
  "Konsul": 36381,
  "Konsumentów</w>": 28685,
  "Kontakt</w>": 27813,
  "Kontra": 28873,
  "Kontrakt</w>": 47285,
  "Kontro": 11257,
  "Kontrola</w>": 35854,
  "Kontroli</w>": 16916,
  "Kontrower": 38971,
  "Kontu": 45108,
  "Konty": 22342,
  "Kontynen": 33372,
  "Kontynu": 38072,
  "Konwen": 22557,
  "Konwencji</w>": 36931,
  "Konwentu</w>": 35462,
  "Kop": 18691,
  "Kopacz</w>": 39912,
  "Kopal": 23581,
  "Kopalni</w>": 42779,
  "Kopalnia</w>": 49226,
  "Kope": 32293,
  "Kopenha": 30038,
  "Kopenhadze</w>": 46830,
  "Koper": 14605,
  "Kopernika</w>": 18745,
  "Kopeć</w>": 35596,
  "Kopy": 45334,
  "Kor": 6077,
  "Kora": 45843,
  "Kore": 10858,
  "Korea": 43483,
  "Korea</w>": 33306,
  "Korei</w>": 22580,
  "Koresponden": 33510,
  "Korespondencja</w>": 38833,
  "Korne": 32373,
  "Koro": 8500,
  "Korona</w>": 13546,
  "Korony</w>": 18904,
  "Korpusu</w>": 42006,
  "Korwin</w>": 44313,
  "Kory": 28889,
  "Korze": 16931,
  "Korzeni": 45629,
  "Korzeniowski</w>": 31468,
  "Korzy": 15291,
  "Korzystając</w>": 42131,
  "Kos": 7218,
  "Kos</w>": 48797,
  "Kosi": 27101,
  "Kosiński</w>": 48592,
  "Kosmi": 47110,
  "Kosowa</w>": 40792,
  "Kosowie</w>": 46026,
  "Kosowski</w>": 30599,
  "Kost": 41498,
  "Koste": 34197,
  "Kostrze": 43964,
  "Kosz": 8438,
  "Kosza": 17408,
  "Koszalin</w>": 42433,
  "Koszalinie</w>": 49790,
  "Koszara": 43221,
  "Koszt</w>": 14241,
  "Koszty</w>": 21119,
  "Koszy": 11762,
  "Koszyce</w>": 41280,
  "Koszykarze</w>": 39962,
  "Koszykówka</w>": 39926,
  "Koszykówki</w>": 38727,
  "Kot": 9021,
  "Kot</w>": 22513,
  "Kotar": 48872,
  "Kotwica</w>": 22485,
  "Kow": 5842,
  "Kowa": 11715,
  "Kowal": 6194,
  "Kowal</w>": 25839,
  "Kowalczyk</w>": 11886,
  "Kowalczyka</w>": 48958,
  "Kowalewski</w>": 46257,
  "Kowalik</w>": 26655,
  "Kowalska</w>": 29818,
  "Kowalski</w>": 11627,
  "Kowalskiego</w>": 40337,
  "Koz": 13525,
  "Koza": 26155,
  "Kozak</w>": 32389,
  "Kozi": 17952,
  "Kozie": 16331,
  "Kozieł</w>": 41646,
  "Kozioł</w>": 20797,
  "Kozu": 33711,
  "Kozłowska</w>": 49679,
  "Kozłowski</w>": 20166,
  "Koł": 16661,
  "Koła": 22508,
  "Koła</w>": 16188,
  "Koło": 18549,
  "Koło</w>": 15939,
  "Kołobrze": 29339,
  "Kołobrzegu</w>": 46662,
  "Kołod": 31876,
  "Kołodko</w>": 48515,
  "Kołodzie": 21060,
  "Kołodziej</w>": 20228,
  "Kołodziejczyk</w>": 37162,
  "Kołłą": 46105,
  "Koń": 25837,
  "Koń</w>": 46813,
  "Końc": 27154,
  "Końcowa</w>": 49529,
  "Kończąc</w>": 48659,
  "Koś": 7732,
  "Kości": 4643,
  "Kościan</w>": 43517,
  "Kościanie</w>": 45548,
  "Koście": 9134,
  "Kościel": 33914,
  "Kościele</w>": 24893,
  "Kościelisko</w>": 39718,
  "Kościerzyna</w>": 37123,
  "Kościerzynie</w>": 36774,
  "Kościo": 20863,
  "Kościoła</w>": 9080,
  "Kościołem</w>": 36419,
  "Kościołowi</w>": 48574,
  "Kościusz": 35700,
  "Kościuszki</w>": 12855,
  "Kościół</w>": 9273,
  "Koź": 18908,
  "Kr": 19544,
  "Kra": 2533,
  "Kraj": 5685,
  "Kraj</w>": 30792,
  "Krajewski</w>": 37376,
  "Krajobraz": 31770,
  "Krajobrazowego</w>": 48269,
  "Krajowa</w>": 23947,
  "Krajowego</w>": 17808,
  "Krajowej</w>": 10031,
  "Krajowy</w>": 36378,
  "Krajowych</w>": 28075,
  "Krajowym</w>": 48174,
  "Krajową</w>": 43916,
  "Kraju</w>": 26725,
  "Krak</w>": 37821,
  "Krakow": 2955,
  "Krakowa</w>": 4696,
  "Krakowem</w>": 28896,
  "Krakowi": 22319,
  "Krakowia": 48068,
  "Krakowianie</w>": 35930,
  "Krakowie</w>": 3992,
  "Krakowska</w>": 16808,
  "Krakowski</w>": 22688,
  "Krakowskie</w>": 32329,
  "Krakowskiego</w>": 23114,
  "Krakowskiej</w>": 10485,
  "Krakowskim</w>": 44227,
  "Krakowską</w>": 33956,
  "Krakus</w>": 28831,
  "Kraków</w>": 4394,
  "Kras": 34312,
  "Krasi": 30993,
  "Krasińskiego</w>": 40950,
  "Krau": 34108,
  "Krauze</w>": 48135,
  "Kraw": 32039,
  "Krawczyk</w>": 17112,
  "Krawiec</w>": 34684,
  "Kre": 7600,
  "Kredy": 16748,
  "Kredyt</w>": 29334,
  "Kredyty</w>": 44595,
  "Krew</w>": 40804,
  "Kri": 22961,
  "Kro": 7134,
  "Krok</w>": 36564,
  "Krokwi</w>": 49911,
  "Kronika</w>": 28497,
  "Kropiw": 41183,
  "Kros": 12865,
  "Krosna</w>": 27562,
  "Krosno</w>": 17090,
  "Kroto": 36272,
  "Krow": 19491,
  "Krowod": 25000,
  "Krowoder": 43233,
  "Krowodrza</w>": 29918,
  "Kroście": 22104,
  "Krościenko</w>": 38167,
  "Krościenku</w>": 48861,
  "Krośni": 33109,
  "Krośnianka</w>": 43292,
  "Krośnie": 34133,
  "Krośnie</w>": 17372,
  "Kru": 6446,
  "Kruczek</w>": 33665,
  "Kruk</w>": 22360,
  "Krup": 21838,
  "Krupa</w>": 24373,
  "Krupówkach</w>": 46227,
  "Krużel</w>": 40658,
  "Krwi": 32323,
  "Krwiodawstwa</w>": 49926,
  "Kry": 4199,
  "Krymina": 37695,
  "Krynica</w>": 22420,
  "Krynicy</w>": 16012,
  "Krysiak</w>": 46995,
  "Kryspi": 46955,
  "Krystian</w>": 19379,
  "Krysty": 29970,
  "Krystyna</w>": 8598,
  "Krystyny</w>": 30403,
  "Kryszał": 48241,
  "Kryzy": 21393,
  "Kryzys</w>": 37181,
  "Kryzysowego</w>": 44235,
  "Krz": 19222,
  "Krzak": 25590,
  "Krzaklewski</w>": 38307,
  "Krzan": 48826,
  "Krze": 11111,
  "Krzemiński</w>": 48243,
  "Krzesz": 15774,
  "Krzeszowicach</w>": 46029,
  "Krzeszowice</w>": 27559,
  "Krzewicki</w>": 46773,
  "Krzy": 2159,
  "Krzyn": 42091,
  "Krzysiek</w>": 25912,
  "Krzyszto": 3489,
  "Krzysztof</w>": 3854,
  "Krzysztofa</w>": 9338,
  "Krzysztofem</w>": 30138,
  "Krzysztofowi</w>": 46599,
  "Krzyw": 42893,
  "Krzywo": 40135,
  "Krzyż": 28677,
  "Krzyż</w>": 22392,
  "Krzyża": 26382,
  "Krzyża</w>": 19894,
  "Krzyżan": 24975,
  "Krzyżem</w>": 26681,
  "Kró": 4781,
  "Król": 46077,
  "Król</w>": 11689,
  "Króla</w>": 25326,
  "Króle": 14669,
  "Królestwa</w>": 25805,
  "Królestwo</w>": 45084,
  "Królew": 17622,
  "Królewska</w>": 40308,
  "Królewskiej</w>": 38831,
  "Króli": 31217,
  "Królowa</w>": 45410,
  "Królowej</w>": 22887,
  "Krót": 41777,
  "Krótko</w>": 19085,
  "Krą": 33219,
  "Krę": 14941,
  "Krężel</w>": 29055,
  "Ks</w>": 21084,
  "Ksa": 44791,
  "Ksią": 7133,
  "Ksiądz</w>": 17155,
  "Książ": 26608,
  "Książek</w>": 40506,
  "Książka</w>": 20767,
  "Książki</w>": 23966,
  "Książę</w>": 34299,
  "Księ": 7611,
  "Księga</w>": 33639,
  "Księgi</w>": 34643,
  "Księstwa</w>": 40277,
  "Księż": 43150,
  "Księży": 20020,
  "Księżyc</w>": 31465,
  "Księżyca</w>": 45725,
  "Kształ": 22611,
  "Kształcenia</w>": 36662,
  "Kto": 12211,
  "Kto</w>": 7178,
  "Ktoś</w>": 12929,
  "Któ": 2676,
  "Któr": 2472,
  "Które": 48696,
  "Który</w>": 7983,
  "Ku": 3062,
  "Ku</w>": 30852,
  "Kuba": 25775,
  "Kuba</w>": 19657,
  "Kubi": 10788,
  "Kubiak</w>": 35722,
  "Kubica</w>": 34793,
  "Kubik</w>": 41774,
  "Kubu": 33943,
  "Kuby</w>": 45807,
  "Kuch": 12377,
  "Kucharski</w>": 25718,
  "Kucz": 29834,
  "Kudła": 42031,
  "Kuja": 20086,
  "Kukli": 42653,
  "Kuku": 39522,
  "Kul": 4058,
  "Kula</w>": 40347,
  "Kulawi": 41611,
  "Kulczyk</w>": 41250,
  "Kule": 34557,
  "Kulesza</w>": 48388,
  "Kuli": 14099,
  "Kulig</w>": 28314,
  "Kultura</w>": 26482,
  "Kultural": 27852,
  "Kultury</w>": 4609,
  "Kun": 23527,
  "Kup": 15614,
  "Kupi": 32281,
  "Kur": 6902,
  "Kura": 17176,
  "Kuratorium</w>": 26653,
  "Kurd": 37764,
  "Kurdwanów</w>": 44589,
  "Kurek</w>": 33027,
  "Kuro": 23037,
  "Kurowski</w>": 45385,
  "Kuroń</w>": 45273,
  "Kurs</w>": 34945,
  "Kursy</w>": 49972,
  "Kury": 45168,
  "Kut": 14877,
  "Kutnie</w>": 37452,
  "Kuła": 37856,
  "Kuś</w>": 42906,
  "Kuź": 13269,
  "Kwa": 7836,
  "Kwad": 45937,
  "Kwar": 36989,
  "Kwaśnie": 10560,
  "Kwaśniewski</w>": 16892,
  "Kwaśniewskiego</w>": 21820,
  "Kwe": 19954,
  "Kwestia</w>": 33959,
  "Kwi": 13948,
  "Kwia": 27551,
  "Kwiat": 10200,
  "Kwiatek</w>": 30783,
  "Kwiatkowski</w>": 16806,
  "Kwiatkowskiego</w>": 36676,
  "Kwiaty</w>": 35587,
  "Kwidzy": 17024,
  "Kwidzyn</w>": 30800,
  "Kwidzynie</w>": 37976,
  "Kwie": 19347,
  "Kwiecień</w>": 25407,
  "Kwo": 22520,
  "Kwota</w>": 33892,
  "Ky": 18706,
  "Kysiak</w>": 45174,
  "KÓ": 22026,
  "KÓJ</w>": 28542,
  "KÓW</w>": 13978,
  "KÓWKA</w>": 41171,
  "Kór": 40499,
  "Ką": 15763,
  "KĘ</w>": 18840,
  "Kę": 7262,
  "Kędzi": 28857,
  "Kędzie": 30438,
  "Kędzier": 43076,
  "Kędzior</w>": 44372,
  "Kęp": 36010,
  "Kęt</w>": 37203,
  "Kętach</w>": 22095,
  "Kęty</w>": 23714,
  "KŁA": 36865,
  "Kła": 19284,
  "Kło": 9014,
  "Kłodz": 32926,
  "Kłodzka</w>": 49856,
  "Kłodzku</w>": 47015,
  "Kłopo": 18378,
  "Kłopot</w>": 46552,
  "Kłopoty</w>": 27588,
  "Kłos": 36952,
  "Kłos</w>": 22974,
  "Kłu": 42835,
  "KŻ</w>": 34573,
  "L": 48,
  "L</w>": 1044,
  "LA": 9377,
  "LA</w>": 8698,
  "LAN": 46549,
  "LAR": 21188,
  "LD</w>": 5527,
  "LE": 4591,
  "LE</w>": 16523,
  "LEC</w>": 42083,
  "LEG": 35135,
  "LENIA</w>": 33792,
  "LER": 34533,
  "LESZ": 27620,
  "LESZEK</w>": 41710,
  "LEW": 23325,
  "LI": 4396,
  "LI</w>": 28240,
  "LIA</w>": 44275,
  "LICE</w>": 31763,
  "LICZ": 23340,
  "LICZKA</w>": 29739,
  "LIGA</w>": 27463,
  "LIZ</w>": 44734,
  "LKS</w>": 8706,
  "LM</w>": 25331,
  "LN": 48374,
  "LO": 7380,
  "LO</w>": 7658,
  "LOD": 42451,
  "LOGI": 45031,
  "LOK</w>": 34926,
  "LOKA": 31815,
  "LOKAL</w>": 32842,
  "LOT</w>": 34703,
  "LP</w>": 37011,
  "LPR</w>": 16583,
  "LS</w>": 47029,
  "LSKI</w>": 24848,
  "LT</w>": 46678,
  "LU": 11571,
  "LU</w>": 39316,
  "LUKS</w>": 48203,
  "LZS</w>": 20825,
  "La": 4071,
  "La</w>": 14133,
  "Laak": 38265,
  "LaaknorBot</w>": 38651,
  "Labora": 38255,
  "Laboratorium</w>": 47688,
  "Lach</w>": 45605,
  "Lady</w>": 31871,
  "Laj": 32940,
  "Lak": 20015,
  "Lake</w>": 31125,
  "Lakers</w>": 39719,
  "Lam": 16570,
  "Lan": 10983,
  "Lanc": 41695,
  "Land": 41352,
  "Lang": 36594,
  "Lar": 22614,
  "Las": 35531,
  "Las</w>": 23454,
  "Lasek</w>": 43031,
  "Lask": 21083,
  "Laskowski</w>": 44156,
  "Lasy</w>": 47313,
  "Laszkiewicz</w>": 43784,
  "Lasów</w>": 38199,
  "Lat": 31502,
  "Lata": 42946,
  "Lata</w>": 24194,
  "Latem</w>": 24707,
  "Lato": 43589,
  "Lato</w>": 21826,
  "Lau": 12375,
  "Laure": 36545,
  "Laurea": 36769,
  "Laureaci</w>": 40674,
  "Lazio</w>": 34922,
  "Le": 3846,
  "Le</w>": 20386,
  "Lea": 27751,
  "Lea</w>": 35584,
  "League</w>": 37681,
  "Lech": 14548,
  "Lech</w>": 7270,
  "Lecha</w>": 10680,
  "Lechem</w>": 31990,
  "Lechi": 40870,
  "Lechia</w>": 23876,
  "Lechii</w>": 41763,
  "Lecz</w>": 17739,
  "Leczenie</w>": 41885,
  "Lee</w>": 27230,
  "Leg": 13545,
  "Legen": 28791,
  "Legenda</w>": 44995,
  "Legi": 8127,
  "Legia</w>": 16618,
  "Legii</w>": 17792,
  "Legion": 15048,
  "Legion</w>": 47834,
  "Legiono": 36626,
  "Legionowa</w>": 34832,
  "Legionowie</w>": 28035,
  "Legionowo</w>": 41178,
  "Legionów</w>": 29866,
  "Legisla": 36418,
  "Legią</w>": 34238,
  "Legnica</w>": 42755,
  "Legnicy</w>": 21672,
  "Leh": 42273,
  "Lei": 26937,
  "Lek": 24113,
  "Lekarskiej</w>": 49491,
  "Lekarz</w>": 22332,
  "Lekarze</w>": 17875,
  "Lekko": 44660,
  "Lekkoatle": 48538,
  "Len": 16876,
  "Lenar": 29744,
  "Lenina</w>": 37642,
  "Leo</w>": 37432,
  "Leon</w>": 22925,
  "Leona</w>": 36851,
  "Leonar": 22570,
  "Leonarda</w>": 44850,
  "Leoni": 49326,
  "Leopol": 29431,
  "Leopold</w>": 44974,
  "Lep": 11500,
  "Lepie": 49918,
  "Lepiej</w>": 17386,
  "Lepper</w>": 21709,
  "Leppera</w>": 28737,
  "Les": 41658,
  "Les</w>": 29121,
  "Lesz": 11953,
  "Leszczy": 23576,
  "Leszczyński</w>": 40007,
  "Leszek</w>": 6375,
  "Leszka</w>": 14416,
  "Leszna</w>": 26786,
  "Lesznie</w>": 20434,
  "Leszno</w>": 19995,
  "Lesław</w>": 39691,
  "Let": 25804,
  "Lever": 42790,
  "Leverkusen</w>": 43733,
  "Lew</w>": 29363,
  "Lewan": 12530,
  "Lewandowska</w>": 49913,
  "Lewandowski</w>": 16259,
  "Lewandowskiego</w>": 46047,
  "Lewi": 8747,
  "Lewica</w>": 46275,
  "Lewicy</w>": 11724,
  "Lewis</w>": 44604,
  "Leś": 10875,
  "Leśnej</w>": 39415,
  "Leśni": 35447,
  "Leśniak</w>": 19764,
  "Leśnictwa</w>": 49764,
  "Leśnik</w>": 38083,
  "Leż": 21952,
  "Leżaj": 30355,
  "Leżajsk</w>": 44839,
  "Li": 2609,
  "Li</w>": 43836,
  "Libe": 26397,
  "Liber": 18499,
  "Libi": 13337,
  "Libią": 15930,
  "Libiąż</w>": 31506,
  "Libiąża</w>": 38936,
  "Libiążu</w>": 33954,
  "Lice": 43017,
  "Licen": 33131,
  "Licencja</w>": 45223,
  "Liceum</w>": 10084,
  "Lich": 46857,
  "Licz": 12813,
  "Liczba</w>": 15532,
  "Liczy</w>": 27639,
  "Liczymy</w>": 23450,
  "Liczą</w>": 49077,
  "Liczę</w>": 28292,
  "Lide": 45017,
  "Lider</w>": 21021,
  "Lidia</w>": 23594,
  "Lidze</w>": 24141,
  "Lie": 27603,
  "Life</w>": 28377,
  "Liga</w>": 14632,
  "Ligi</w>": 9748,
  "Likwi": 30586,
  "Likwidacja</w>": 47881,
  "Lil": 32832,
  "Lili": 44346,
  "Liman": 10536,
  "Limanovia</w>": 46828,
  "Limanowa</w>": 30872,
  "Limanowej</w>": 18263,
  "Limanowskiego</w>": 40888,
  "Lin": 9219,
  "Lind": 37018,
  "Linia</w>": 32861,
  "Linie</w>": 43972,
  "Link</w>": 43393,
  "Linux</w>": 44898,
  "Lip": 8847,
  "Lipi": 25289,
  "Lipiec</w>": 45599,
  "Lipiński</w>": 41330,
  "Lipnica</w>": 44736,
  "Lipnicki</w>": 30225,
  "Lipnicy</w>": 32690,
  "Lis</w>": 23260,
  "Lisa</w>": 28923,
  "Lisowski</w>": 28693,
  "List": 14650,
  "List</w>": 24755,
  "Lista</w>": 13540,
  "Listkiewicz</w>": 47451,
  "Listo": 26547,
  "Listopada</w>": 32514,
  "Listy</w>": 28877,
  "Listę</w>": 44420,
  "Lit": 14758,
  "Lite": 25434,
  "Litera": 14665,
  "Literatura</w>": 36259,
  "Litewka</w>": 46108,
  "Little</w>": 22885,
  "Litwa</w>": 33767,
  "Litwi": 28590,
  "Litwie</w>": 3063,
  "Litwin</w>": 45782,
  "Litwy</w>": 22286,
  "Live</w>": 41410,
  "Liverpo": 20730,
  "Liverpool</w>": 30111,
  "Liverpoolu</w>": 40884,
  "Lizbo": 40134,
  "Liście</w>": 44770,
  "Lo": 4702,
  "Lod": 36268,
  "Log": 43207,
  "Logi": 35649,
  "Loka": 12549,
  "Lokatorzy</w>": 38374,
  "Loko": 47373,
  "Lol": 44336,
  "Lombar": 33781,
  "Lombard</w>": 49315,
  "Lon": 17930,
  "London</w>": 46280,
  "Londy": 9468,
  "Londyn</w>": 25879,
  "Londynie</w>": 14964,
  "Londynu</w>": 23438,
  "Lor": 21318,
  "Lord</w>": 49189,
  "Loren": 27162,
  "Los</w>": 14401,
  "Losy</w>": 46477,
  "Lot": 9586,
  "Lotar": 37700,
  "Lotaryn": 40526,
  "Lotnictwa</w>": 43886,
  "Lotniczego</w>": 42573,
  "Lotnik</w>": 44140,
  "Lotos</w>": 29019,
  "Lou": 24927,
  "Louis</w>": 30436,
  "Love</w>": 33816,
  "Ltd</w>": 43743,
  "Lu": 4923,
  "Lub": 23369,
  "Luba": 11746,
  "Lubań</w>": 25790,
  "Lube": 42785,
  "Lubel": 23046,
  "Lubi": 8944,
  "Lubi</w>": 39482,
  "Lubicz</w>": 38840,
  "Lubin</w>": 22528,
  "Lubinie</w>": 39197,
  "Lubię</w>": 24656,
  "Lubli": 9127,
  "Lublin</w>": 17263,
  "Lublina</w>": 26943,
  "Lublinie</w>": 19234,
  "Lubo": 14773,
  "Lubomi": 39186,
  "Lubu": 46543,
  "Lucjan</w>": 32144,
  "Lucy": 42966,
  "Lucyna</w>": 25586,
  "Lud": 8190,
  "Ludow": 7988,
  "Ludowe</w>": 31967,
  "Ludowego</w>": 14269,
  "Ludowej</w>": 24140,
  "Ludowy</w>": 39669,
  "Ludwi": 9308,
  "Ludwik</w>": 18340,
  "Ludwika</w>": 17970,
  "Ludzi</w>": 37496,
  "Ludzie</w>": 7753,
  "Ludź": 30243,
  "Lui": 29013,
  "Luis</w>": 46022,
  "Lukasz</w>": 25936,
  "Luksem": 25639,
  "Lut": 28067,
  "Lw": 10970,
  "Lwa</w>": 36011,
  "Lwowa</w>": 23414,
  "Lwowie</w>": 21338,
  "Lwowskiej</w>": 43247,
  "Lwów</w>": 33695,
  "Ly": 19908,
  "Lyon</w>": 46067,
  "Lą": 39593,
  "Lę": 19980,
  "Lębor": 23766,
  "M": 5103,
  "M</w>": 1058,
  "MA": 5248,
  "MA</w>": 11639,
  "MAG": 25435,
  "MAGDA</w>": 42951,
  "MAL": 26853,
  "MALOWANIE</w>": 36520,
  "MAN": 27396,
  "MAN</w>": 34701,
  "MAR": 9097,
  "MARCIN</w>": 31665,
  "MAREK</w>": 26880,
  "MARI": 32846,
  "MARTA</w>": 45200,
  "MAS</w>": 33549,
  "MAT": 11744,
  "MATE": 23684,
  "MATEMATYKA</w>": 25886,
  "MATY": 21664,
  "MATYKA</w>": 25176,
  "MAX</w>": 46281,
  "MAZ</w>": 45250,
  "MAŁ": 32286,
  "MAŁGORZ": 49502,
  "MB": 39075,
  "MB</w>": 21615,
  "MC": 23522,
  "MC</w>": 35220,
  "MCG</w>": 42154,
  "MD</w>": 47443,
  "MDK</w>": 18938,
  "ME": 7659,
  "ME</w>": 15779,
  "MEN</w>": 31062,
  "MENT</w>": 44342,
  "MER": 18163,
  "MERCEDE": 46953,
  "MET</w>": 32978,
  "MF</w>": 25154,
  "MG</w>": 15722,
  "MH": 31771,
  "MH</w>": 35226,
  "MHz</w>": 47733,
  "MI": 5518,
  "MI</w>": 15822,
  "MIA</w>": 35050,
  "MICE</w>": 45170,
  "MICH": 27759,
  "MIE": 8488,
  "MIEJ": 39733,
  "MIER": 45297,
  "MIERZ</w>": 30297,
  "MIESZ": 27175,
  "MIESZKA": 29727,
  "MIESZKANIE</w>": 47815,
  "MIGA</w>": 37307,
  "MINI": 40747,
  "MIR</w>": 40755,
  "MJ</w>": 47123,
  "MK</w>": 16927,
  "MKS</w>": 7831,
  "ML</w>": 26033,
  "MM</w>": 22880,
  "MMKS</w>": 28890,
  "MO": 4698,
  "MO</w>": 18977,
  "MOK</w>": 24900,
  "MOL": 25942,
  "MOLNAR": 27411,
  "MOLNARka</w>": 27429,
  "MON": 28675,
  "MON</w>": 22665,
  "MOPS</w>": 25534,
  "MOS</w>": 25602,
  "MOSiR</w>": 13677,
  "MOWANIE</w>": 40260,
  "MP": 8137,
  "MP</w>": 10958,
  "MPK</w>": 13691,
  "MR</w>": 31263,
  "MS": 13768,
  "MS</w>": 8486,
  "MST</w>": 41955,
  "MSW</w>": 26706,
  "MSWiA</w>": 26959,
  "MSZ</w>": 19740,
  "MT</w>": 21096,
  "MTB</w>": 48245,
  "MTS</w>": 28297,
  "MU": 15276,
  "MU</w>": 32734,
  "MW</w>": 16599,
  "MY": 18392,
  "MY</w>": 11895,
  "MYŚ": 33958,
  "MZ": 16115,
  "MZK</w>": 31507,
  "Ma": 2306,
  "Ma</w>": 6040,
  "Mac": 23116,
  "Mac</w>": 40696,
  "Mace": 25269,
  "Macedo": 26826,
  "Macedonii</w>": 46778,
  "Mach": 19305,
  "Machar": 40514,
  "Maci": 40564,
  "Macia": 40389,
  "Macie": 6674,
  "Maciej": 45470,
  "Maciej</w>": 43,
  "Macieja</w>": 15067,
  "Maciejem</w>": 45490,
  "Maciejewski</w>": 34352,
  "Maciek</w>": 13274,
  "Maciere": 32805,
  "Macierewicz</w>": 46701,
  "Maciu": 46720,
  "Mad": 8821,
  "Mada": 47823,
  "Made": 22189,
  "Madej</w>": 23295,
  "Madon": 33478,
  "Madry": 18262,
  "Madrycie</w>": 44530,
  "Madryt</w>": 25663,
  "Mag": 5269,
  "Magazy": 33170,
  "Magda</w>": 13253,
  "Magdale": 7203,
  "Magdalena</w>": 8074,
  "Magdaleny</w>": 32352,
  "Magdy</w>": 46152,
  "Magi": 17942,
  "Magic</w>": 42976,
  "Magiera</w>": 46100,
  "Mah": 46852,
  "Mai": 31268,
  "Maj": 52,
  "Maj</w>": 23466,
  "Maja</w>": 11779,
  "Majch": 15266,
  "Majcher</w>": 48456,
  "Majchrowski</w>": 36141,
  "Majchrzak</w>": 28379,
  "Majdan</w>": 44178,
  "Maje": 33763,
  "Majewski</w>": 20211,
  "Majka</w>": 35519,
  "Majkowska</w>": 48752,
  "Mają</w>": 11246,
  "Mając</w>": 24259,
  "Mak": 38168,
  "Maka": 46320,
  "Makar": 38118,
  "Makarczuk</w>": 48180,
  "Makowski</w>": 31177,
  "Maksy": 20568,
  "Maksymal": 40853,
  "Maksymili": 24839,
  "Maksymilian</w>": 41396,
  "Maksymiliana</w>": 40798,
  "Maku": 33801,
  "Maków</w>": 43237,
  "Mal": 5544,
  "Mala": 19281,
  "Malar": 39429,
  "Malarz</w>": 44455,
  "MalarzBOT</w>": 34721,
  "Malbor": 15527,
  "Malbork</w>": 35601,
  "Malborka</w>": 39259,
  "Malborku</w>": 31728,
  "Male": 22915,
  "Malec</w>": 33826,
  "Mali": 11584,
  "Mali</w>": 37374,
  "Malinowski</w>": 23610,
  "Malta</w>": 46691,
  "Mam": 44971,
  "Mam</w>": 4985,
  "Mama</w>": 21882,
  "Mamy</w>": 6034,
  "Man": 7195,
  "Man</w>": 28117,
  "Mana": 33746,
  "Manche": 19333,
  "Manchester</w>": 27439,
  "Manhat": 42220,
  "Mani": 25113,
  "Mania</w>": 48567,
  "Manife": 47442,
  "Maniowy</w>": 41057,
  "Manu": 26116,
  "Mar": 2319,
  "Mar</w>": 18078,
  "Mara": 18778,
  "Maraton</w>": 32081,
  "Marc": 45006,
  "Marce": 33819,
  "Marche": 13879,
  "Marchewka</w>": 16040,
  "Marci": 3643,
  "Marcin": 15809,
  "Marcin</w>": 4215,
  "Marcina</w>": 12271,
  "Marcinem</w>": 40432,
  "Marciniak</w>": 29778,
  "Marcinkiewicz</w>": 39046,
  "Marco</w>": 44366,
  "Marek</w>": 3904,
  "Margar": 46290,
  "Mari": 3691,
  "Maria": 25069,
  "Maria</w>": 6207,
  "Marian": 42992,
  "Marian</w>": 7676,
  "Mariana</w>": 17454,
  "Marianna</w>": 38895,
  "Marie</w>": 42073,
  "Marii</w>": 11001,
  "Marino</w>": 49624,
  "Mario</w>": 36810,
  "Mariola</w>": 28140,
  "Mariusz</w>": 6057,
  "Mariusza</w>": 17884,
  "Marią</w>": 43777,
  "Marię</w>": 30270,
  "Mark</w>": 32429,
  "Marka</w>": 8604,
  "Marke": 28596,
  "Markiem</w>": 27959,
  "Markiewicz</w>": 30799,
  "Markowi</w>": 42167,
  "Markowski</w>": 34464,
  "Marlena</w>": 39043,
  "Maro": 39732,
  "Mars</w>": 49531,
  "Marsa</w>": 47467,
  "Marsy": 39021,
  "Marsz</w>": 45524,
  "Marszał": 4339,
  "Marszałek</w>": 11309,
  "Marszałka</w>": 33896,
  "Marszałkowski</w>": 30201,
  "Marszałkowskiego</w>": 25172,
  "Marszałku</w>": 5348,
  "Mart": 31761,
  "Marta</w>": 9139,
  "Marti": 42658,
  "Martin</w>": 18682,
  "Martina</w>": 34953,
  "Marty": 36458,
  "Marty</w>": 35284,
  "Martyna</w>": 25972,
  "Maru": 47089,
  "Mary": 7854,
  "Mary</w>": 38746,
  "Maryi</w>": 30556,
  "Maryja</w>": 24925,
  "Marynarki</w>": 34155,
  "Marynatka</w>": 36762,
  "Marysia</w>": 40517,
  "Marze": 15878,
  "Marzec</w>": 31441,
  "Marzena</w>": 19025,
  "Mas": 42148,
  "Masti": 20509,
  "MastiBot</w>": 20598,
  "Masz</w>": 19989,
  "Masłow": 37631,
  "Mat": 5449,
  "Mate": 6162,
  "Mateja</w>": 35213,
  "Matejki</w>": 32264,
  "Matema": 35504,
  "Materi": 21389,
  "Materiał</w>": 46496,
  "Materiały</w>": 36610,
  "Mateusz</w>": 8113,
  "Mateusza</w>": 27187,
  "Matka</w>": 16173,
  "Matki</w>": 11554,
  "Matkowski</w>": 35028,
  "Matma": 49320,
  "MatmaBot</w>": 49522,
  "Matu": 11888,
  "Matusiak</w>": 33313,
  "Maty": 19827,
  "Mau": 17983,
  "Mauri": 41732,
  "Maury": 42463,
  "Maver": 49416,
  "Max": 42638,
  "Max</w>": 27223,
  "May": 27090,
  "May</w>": 19436,
  "Maz": 7761,
  "Mazow": 18811,
  "Mazowie": 11645,
  "Mazowiecki</w>": 28053,
  "Mazowieckiego</w>": 26665,
  "Mazowieckiej</w>": 44905,
  "Mazowieckim</w>": 47250,
  "Mazowsza</w>": 36836,
  "Mazowsze</w>": 40985,
  "Mazowszu</w>": 48102,
  "Mazu": 10220,
  "Mazur": 20128,
  "Mazur</w>": 14233,
  "Mazurek</w>": 34522,
  "Mazurkiewicz</w>": 37090,
  "Mać": 3003,
  "Mał": 3315,
  "Mała": 30995,
  "Mała</w>": 19451,
  "Małe</w>": 19866,
  "Małecki</w>": 42188,
  "Małego</w>": 37805,
  "Małej</w>": 27980,
  "Małek</w>": 37647,
  "Małgo": 30588,
  "Małgorz": 5988,
  "Małgorzata</w>": 6718,
  "Małgorzaty</w>": 22829,
  "Małgorzatę</w>": 45956,
  "Małgosia</w>": 42690,
  "Mało</w>": 16940,
  "Małopol": 5289,
  "Małopolsce</w>": 13876,
  "Małopolska</w>": 19751,
  "Małopolski</w>": 9678,
  "Małopolskie</w>": 36140,
  "Małopolskiego</w>": 15055,
  "Małopolskiej</w>": 30673,
  "Małopolskim</w>": 46308,
  "Mały": 11024,
  "Mały</w>": 21593,
  "Małych</w>": 30914,
  "Małym</w>": 43079,
  "Małysz</w>": 15576,
  "Małysza</w>": 27408,
  "Małżeństwo</w>": 46977,
  "Mc": 13165,
  "Mc</w>": 26223,
  "Me": 3273,
  "Me</w>": 36301,
  "Meble</w>": 49079,
  "Mecha": 17671,
  "Mechanizm</w>": 48860,
  "Mecz</w>": 10108,
  "Mecze</w>": 22455,
  "Medal</w>": 33028,
  "Medale</w>": 40982,
  "Medi": 14858,
  "Media</w>": 22810,
  "Medio": 30687,
  "Mediolan</w>": 45593,
  "Medy": 10786,
  "Medycyny</w>": 39839,
  "Medycznego</w>": 45206,
  "Medycznej</w>": 26326,
  "Mei": 44229,
  "Mek": 14767,
  "Meksy": 15726,
  "Meksyk</w>": 36739,
  "Meksyku</w>": 23972,
  "Mel": 16952,
  "Melancho": 39885,
  "MelancholieBot</w>": 42465,
  "Meli": 41629,
  "Memori": 31332,
  "Memoriał</w>": 47662,
  "Men": 16148,
  "Mene": 44055,
  "Mer": 9374,
  "Mercede": 46649,
  "Mercedes</w>": 31872,
  "Merta</w>": 49388,
  "Message</w>": 34741,
  "Met": 17768,
  "Meta": 25891,
  "Metal": 41443,
  "Metal</w>": 35750,
  "Mete": 45821,
  "Metoda</w>": 36480,
  "Metody</w>": 48626,
  "Metropoli": 30587,
  "Mi": 2231,
  "Mi</w>": 37071,
  "MiG</w>": 48427,
  "Mia": 3802,
  "Mia</w>": 49284,
  "Miami</w>": 36255,
  "Mian": 25617,
  "Mianowicie</w>": 30112,
  "Miast": 40234,
  "Miast</w>": 31813,
  "Miasta</w>": 4565,
  "Miaste": 35510,
  "Miasto</w>": 8147,
  "Miał</w>": 10462,
  "Miała</w>": 19680,
  "Miałam</w>": 32648,
  "Miałem</w>": 16070,
  "Miało</w>": 30990,
  "Miały</w>": 38207,
  "Mic": 7987,
  "Mich": 3461,
  "Micha": 8359,
  "Micha</w>": 44171,
  "Michael</w>": 17832,
  "Michaela</w>": 32567,
  "Michal": 11076,
  "Michal</w>": 15652,
  "Michalak</w>": 29670,
  "Michali": 18018,
  "Michalik</w>": 24764,
  "Michalski</w>": 24285,
  "Michał": 12229,
  "Michał5</w>": 38539,
  "Michał</w>": 4549,
  "Michała</w>": 11843,
  "Michałem</w>": 39059,
  "Michałowice</w>": 45486,
  "Miche": 44833,
  "Michel</w>": 48166,
  "Michnik</w>": 32600,
  "Michnika</w>": 41269,
  "Mickiewicz</w>": 35615,
  "Mickiewicza</w>": 13227,
  "Microso": 18101,
  "Microsoft</w>": 22604,
  "Microsoftu</w>": 45474,
  "Midd": 48023,
  "Midi</w>": 37315,
  "Mie": 2735,
  "Miechowa</w>": 37839,
  "Miechowie</w>": 19070,
  "Miechów</w>": 28215,
  "Mieczy": 8810,
  "Mieczysław</w>": 10877,
  "Mieczysława</w>": 23010,
  "Miedzi": 48151,
  "Miedź</w>": 45768,
  "Miej": 3637,
  "Miejmy</w>": 38618,
  "Miejsc": 13721,
  "Miejsca</w>": 29310,
  "Miejsce</w>": 17348,
  "Miejscowi</w>": 32778,
  "Miejscowości</w>": 30838,
  "Miejscowość</w>": 32870,
  "Miejska</w>": 14702,
  "Miejski</w>": 13292,
  "Miejskich</w>": 31768,
  "Miejskie</w>": 29628,
  "Miejskiego</w>": 9070,
  "Miejskiej</w>": 6968,
  "Miejskim</w>": 15484,
  "Miejsko</w>": 34045,
  "Miejską</w>": 35035,
  "Miel": 12359,
  "Mielca</w>": 31476,
  "Mielcu</w>": 27485,
  "Mielec</w>": 16967,
  "Mieli</w>": 24145,
  "Mieliśmy</w>": 16187,
  "Mienia</w>": 45700,
  "Mierz": 41320,
  "Mierze": 42523,
  "Miesi": 29341,
  "Miesiąc</w>": 35036,
  "Miesię": 39659,
  "Miesz": 40119,
  "Mieszka": 5266,
  "Mieszka</w>": 21570,
  "Mieszkam</w>": 36838,
  "Mieszkania</w>": 43958,
  "Mieszkanie</w>": 38190,
  "Mieszkaniec</w>": 34411,
  "Mieszkaniowa</w>": 41520,
  "Mieszkaniowej</w>": 16973,
  "Mieszkańcy</w>": 8236,
  "Mieszkańców</w>": 42761,
  "Mieszko</w>": 40814,
  "Mieście</w>": 32878,
  "Mik": 29478,
  "Mika</w>": 39161,
  "Mike</w>": 23656,
  "Miko": 27891,
  "Mikoła": 6806,
  "Mikołaj": 22988,
  "Mikołaj</w>": 14864,
  "Mikołaja</w>": 14220,
  "Mikołajczak</w>": 48851,
  "Mikołajczyk</w>": 30478,
  "Mikro": 44842,
  "Miku": 34406,
  "Mikulski</w>": 45960,
  "Mikuła</w>": 48354,
  "Mil": 7307,
  "Milan</w>": 23536,
  "Milena</w>": 41583,
  "Milewski</w>": 49201,
  "Mili": 17504,
  "Milka</w>": 42194,
  "Miller</w>": 15916,
  "Millera</w>": 20604,
  "Milo": 39798,
  "Milosze": 48434,
  "Mimo</w>": 5504,
  "Min": 9814,
  "Mine": 42804,
  "Mini": 3744,
  "Minist": 6382,
  "Minister": 5441,
  "Minister</w>": 10212,
  "Ministerstwa</w>": 9224,
  "Ministerstwem</w>": 47564,
  "Ministerstwie</w>": 15889,
  "Ministerstwo</w>": 9226,
  "Ministra</w>": 24518,
  "Ministrze</w>": 13900,
  "Ministrów</w>": 8867,
  "Minnes": 43096,
  "Minnesota</w>": 48059,
  "Minol": 47821,
  "Minęło</w>": 48593,
  "Miod": 31065,
  "Mir": 22509,
  "Mirek</w>": 19946,
  "Mirnal</w>": 43291,
  "Miro": 6151,
  "Mirosław</w>": 7678,
  "Mirosława</w>": 16668,
  "Miss</w>": 18570,
  "Mist": 16823,
  "Mistrz": 6360,
  "Mistrz</w>": 21298,
  "Mistrza</w>": 38965,
  "Mistrzo": 11736,
  "Mistrzost": 11889,
  "Mistrzostw</w>": 16487,
  "Mistrzostwa</w>": 12639,
  "Mistrzostwach</w>": 22296,
  "Mistrzowie</w>": 38272,
  "Mistrzy": 47927,
  "Mistrzów</w>": 16538,
  "Mit": 24565,
  "Mię": 19953,
  "Między": 13496,
  "Między</w>": 14427,
  "Międzynarodow": 7493,
  "Międzynarodowa</w>": 39692,
  "Międzynarodowe</w>": 30296,
  "Międzynarodowego</w>": 19210,
  "Międzynarodowej</w>": 26023,
  "Międzynarodowy</w>": 20771,
  "Międzynarodowych</w>": 29296,
  "Międzynarodowym</w>": 30390,
  "Mił": 9821,
  "Miło": 24888,
  "Miło</w>": 47188,
  "Miłos": 23515,
  "Miłosier": 26157,
  "Miłosierdzia</w>": 31944,
  "Miłosz</w>": 29212,
  "Miłosza</w>": 43645,
  "Miłoś": 19239,
  "Miłośnicy</w>": 46855,
  "Miłośników</w>": 25136,
  "Miłość</w>": 25988,
  "Mińsku</w>": 46021,
  "Miś": 27001,
  "Miś</w>": 37232,
  "Mle": 25572,
  "Mni": 48389,
  "Mnie</w>": 15899,
  "Mniej</w>": 19312,
  "Mo": 2569,
  "Mob": 41474,
  "Moc": 23862,
  "Mocz": 36393,
  "Moczulski</w>": 45944,
  "Mod": 7483,
  "Mode": 20078,
  "Model</w>": 34728,
  "Moder": 17503,
  "Modernizacja</w>": 37948,
  "Modernizacji</w>": 28223,
  "Modl": 38871,
  "Modli": 45323,
  "Modrze": 25851,
  "Mog": 6433,
  "Mogil": 18793,
  "Mogilany</w>": 41381,
  "Mogilska</w>": 46338,
  "Mogą</w>": 15434,
  "Mogę</w>": 16156,
  "Moi</w>": 28513,
  "Moim</w>": 13081,
  "Moj": 30623,
  "Moja</w>": 12981,
  "Moje</w>": 13738,
  "Mojże": 39928,
  "Moko": 44085,
  "Mokrzy": 32818,
  "Mol": 26153,
  "Mon": 6905,
  "Mon</w>": 13561,
  "Mona": 13576,
  "Monachi": 17882,
  "Monachium</w>": 18202,
  "Monaco</w>": 45421,
  "Mongo": 42847,
  "Moni": 16633,
  "Monika</w>": 8408,
  "Moniki</w>": 37941,
  "Moniuszki</w>": 48361,
  "Mont": 29330,
  "Monta": 38312,
  "Monte": 32725,
  "Monte</w>": 29027,
  "Montre": 34068,
  "Moon</w>": 35918,
  "Mor": 6904,
  "Mora": 14400,
  "Morawski</w>": 37744,
  "Mordar": 42478,
  "More": 42019,
  "Morion</w>": 48492,
  "Morskiego</w>": 37732,
  "Morskiej</w>": 35696,
  "Morza</w>": 25438,
  "Morze</w>": 37479,
  "Mos": 24651,
  "Mosk": 8059,
  "Moska": 25142,
  "Moskal</w>": 32285,
  "Moskwa</w>": 20545,
  "Moskwie</w>": 16301,
  "Moskwy</w>": 19640,
  "Most": 31392,
  "Most</w>": 31978,
  "Mosto": 29790,
  "Mostostal</w>": 44194,
  "Moszcze": 42784,
  "Mot": 15659,
  "Moto": 17534,
  "Motor": 31174,
  "Motor</w>": 28984,
  "Moty": 34255,
  "Motyka</w>": 39560,
  "Moun": 40497,
  "Mowa</w>": 35413,
  "Mozar": 28508,
  "Mozarta</w>": 38365,
  "Moł": 27448,
  "Mołda": 35701,
  "Mości": 25260,
  "Moż": 16033,
  "Może": 12079,
  "Może</w>": 6802,
  "Możemy</w>": 16325,
  "Możesz</w>": 26446,
  "Możliwe</w>": 27438,
  "Możliwość</w>": 37105,
  "Można</w>": 5354,
  "Mr</w>": 21095,
  "Mro": 14139,
  "Mroz": 23395,
  "Mru": 29643,
  "Mróz</w>": 21564,
  "Msza</w>": 31912,
  "Mszana</w>": 32495,
  "Mszanie</w>": 49256,
  "Mszy</w>": 47756,
  "Mu": 3111,
  "Mu</w>": 48915,
  "Much": 44931,
  "Mucha</w>": 26385,
  "Mul": 14961,
  "Multi": 21846,
  "Mun": 24156,
  "Mur": 16886,
  "Mura": 26942,
  "Murzy": 41572,
  "Musi": 6651,
  "Musi</w>": 17524,
  "Musiał</w>": 19122,
  "Musiała</w>": 49403,
  "Musiałem</w>": 38901,
  "Music</w>": 33181,
  "Musie": 23628,
  "Musieliśmy</w>": 37971,
  "Musimy</w>": 11574,
  "Musisz</w>": 47168,
  "Muszy": 13271,
  "Muszyna</w>": 35723,
  "Muszynianka</w>": 38289,
  "Muszynie</w>": 43740,
  "Muszą</w>": 25002,
  "Muszę</w>": 14672,
  "Muze": 46858,
  "Muzeum</w>": 6286,
  "Muzy": 7246,
  "Muzycy</w>": 42862,
  "Muzycznego</w>": 45670,
  "Muzycznej</w>": 19500,
  "Muzyka</w>": 19000,
  "Muzyki</w>": 26500,
  "My": 3838,
  "My</w>": 7462,
  "Mysz": 35217,
  "Myszka</w>": 45023,
  "Mysł": 26426,
  "Mysłowice</w>": 49131,
  "Myśl": 5697,
  "Myślałem</w>": 32343,
  "Myśle": 9999,
  "Myślenic</w>": 32713,
  "Myślenicach</w>": 23091,
  "Myślenice</w>": 19073,
  "Myśli": 23442,
  "Myśli</w>": 37900,
  "Myśliw": 47967,
  "Myślę</w>": 6138,
  "Myśmy</w>": 46937,
  "Mó": 6842,
  "Mógł": 34776,
  "Mógł</w>": 40372,
  "Mój</w>": 11838,
  "Mów": 12544,
  "Mówi": 8712,
  "Mówi</w>": 12954,
  "Mówimy</w>": 43321,
  "Mówiono</w>": 45067,
  "Mówią</w>": 29549,
  "Mówiąc</w>": 26990,
  "Mówię</w>": 25684,
  "Mówił</w>": 22811,
  "Mówiłem</w>": 42985,
  "Mą": 13690,
  "Mąd": 38794,
  "Mąż</w>": 25105,
  "Mę": 17355,
  "Męd": 43088,
  "Męż": 8826,
  "Mężczyzna</w>": 12113,
  "Mężczyźni</w>": 21512,
  "MŁO": 29195,
  "Mło": 10045,
  "Młod": 8423,
  "Młoda</w>": 40897,
  "Młode</w>": 38496,
  "Młody</w>": 22399,
  "Młodych</w>": 22318,
  "Młodzi": 46874,
  "Młodzi</w>": 12735,
  "Młodzie": 6669,
  "Młodzież": 13463,
  "Młodzież</w>": 14439,
  "Młodzieżowego</w>": 39657,
  "Młodzieżowej</w>": 47981,
  "Młodzieżowy</w>": 42024,
  "Młodzieży</w>": 11852,
  "Mły": 13987,
  "Młynar": 26312,
  "Młynarczyk</w>": 44877,
  "MŚ</w>": 13199,
  "N": 50,
  "N</w>": 1077,
  "NA": 6950,
  "NA</w>": 4908,
  "NAJ": 39739,
  "NAPRAWA</w>": 47142,
  "NAR": 17067,
  "NASA</w>": 44251,
  "NAT": 10423,
  "NATO</w>": 11117,
  "NAU": 38438,
  "NBA</w>": 17855,
  "NBP</w>": 18047,
  "ND</w>": 45166,
  "NE": 8012,
  "NE</w>": 9331,
  "NEGO</w>": 41488,
  "NEJ</w>": 37369,
  "NEK</w>": 32982,
  "NER": 41785,
  "NET</w>": 38392,
  "NF": 11991,
  "NFI</w>": 41626,
  "NFZ</w>": 14871,
  "NGC</w>": 21539,
  "NHL</w>": 28965,
  "NI": 2933,
  "NI</w>": 19922,
  "NIA</w>": 6700,
  "NIAK</w>": 41810,
  "NICA</w>": 18914,
  "NICE</w>": 33930,
  "NICY</w>": 46673,
  "NIE": 7719,
  "NIE</w>": 5985,
  "NIEC</w>": 32371,
  "NIEMIE": 43429,
  "NIEMIECKI</w>": 48251,
  "NIEPO": 45646,
  "NIEPOŁO": 48575,
  "NIEPOŁOMICE</w>": 49288,
  "NIER": 35316,
  "NIERA</w>": 45204,
  "NIERUCHO": 46260,
  "NIERUCHOMO": 46438,
  "NIK</w>": 10306,
  "NIKA</w>": 21845,
  "NIKI</w>": 27864,
  "NIKÓW</w>": 41174,
  "NIN</w>": 48816,
  "NKI</w>": 21803,
  "NKW": 35128,
  "NKWD</w>": 35207,
  "NMP</w>": 35314,
  "NNA</w>": 48790,
  "NO": 6309,
  "NO</w>": 13142,
  "NOC</w>": 24713,
  "NOSPAM</w>": 13517,
  "NOW": 21301,
  "NOWA</w>": 45304,
  "NOWE</w>": 35330,
  "NOWY</w>": 17232,
  "NOŻNA</w>": 47219,
  "NP": 42289,
  "NP</w>": 27156,
  "NRD</w>": 27066,
  "NS</w>": 39335,
  "NSA</w>": 31456,
  "NSZ": 18910,
  "NSZZ</w>": 19177,
  "NT": 11399,
  "NT</w>": 21874,
  "NU</w>": 45080,
  "NY</w>": 9028,
  "NYCH</w>": 34575,
  "NZOZ</w>": 42683,
  "Na": 3235,
  "Na</w>": 2359,
  "Nabo": 44225,
  "Naci": 49490,
  "Nacze": 13638,
  "Naczelnego</w>": 33474,
  "Naczelnej</w>": 44732,
  "Naczelnik</w>": 47591,
  "Naczelny</w>": 42709,
  "Nad": 6071,
  "Nad</w>": 10861,
  "Nadal</w>": 13813,
  "Nadleś": 41654,
  "Nadleśnictwa</w>": 46274,
  "Nadwi": 31757,
  "Nadwiśla": 27016,
  "Nadwiślanka</w>": 44127,
  "Nadz": 9955,
  "Nadzie": 25469,
  "Nadzieja</w>": 39815,
  "Nadzor": 20432,
  "Nadzorczej</w>": 27826,
  "Nadzoru</w>": 20661,
  "Nadzwyczaj": 23250,
  "Nadzwyczajnej</w>": 33738,
  "Naf": 14275,
  "Nafta</w>": 26290,
  "Nafty</w>": 40840,
  "Nag": 10946,
  "Nagle</w>": 20160,
  "Nagro": 9694,
  "Nagroda</w>": 24252,
  "Nagrody</w>": 13429,
  "Nagrodą</w>": 44579,
  "Nagrodę</w>": 23040,
  "Naj": 2823,
  "Najbardziej</w>": 9558,
  "Najbliż": 23923,
  "Najbliższe</w>": 44723,
  "Najczęściej</w>": 13312,
  "Najgorsze</w>": 38029,
  "Najgorzej</w>": 34924,
  "Najlep": 7718,
  "Najlepiej</w>": 15287,
  "Najlepsi</w>": 21940,
  "Najlepsza</w>": 36310,
  "Najlepsze</w>": 25085,
  "Najlepszy</w>": 19449,
  "Najlepszym</w>": 22287,
  "Najlepszą</w>": 38782,
  "Najmniej</w>": 44367,
  "Najmłodsi</w>": 47620,
  "Najnow": 30812,
  "Najpierw</w>": 7525,
  "Najpięk": 43003,
  "Najpopular": 41741,
  "Najprawdopodobniej</w>": 22449,
  "Najskutecz": 48347,
  "Najstarszy</w>": 44745,
  "Najważ": 10131,
  "Najważniejsza</w>": 42512,
  "Najważniejsze</w>": 14731,
  "Najważniejszy</w>": 49759,
  "Najważniejszym</w>": 37737,
  "Najwięcej</w>": 10654,
  "Największa</w>": 38253,
  "Największe</w>": 17170,
  "Największy</w>": 22734,
  "Największym</w>": 22412,
  "Największą</w>": 22090,
  "Najwyraźniej</w>": 49349,
  "Najwyż": 9783,
  "Najwyższa</w>": 34548,
  "Najwyższego</w>": 24803,
  "Najwyższej</w>": 24448,
  "Najwyższy</w>": 24537,
  "Najświęt": 19372,
  "Najświętszego</w>": 44990,
  "Najświętszej</w>": 27236,
  "Nak": 11425,
  "Nakle</w>": 20435,
  "Nakła</w>": 49358,
  "Nakło</w>": 25869,
  "Nalep": 34350,
  "Należ": 24634,
  "Należy</w>": 8970,
  "Należą</w>": 48197,
  "Nam</w>": 28062,
  "Nan": 29012,
  "Napast": 21151,
  "Napastnicy</w>": 33766,
  "Napastnik</w>": 36698,
  "Napisał</w>": 46628,
  "Napole": 25653,
  "Napoleona</w>": 42571,
  "Naprawdę</w>": 21860,
  "Naprzód</w>": 34438,
  "Nar": 9375,
  "Narciar": 30724,
  "Nareszcie</w>": 40616,
  "Narko": 48656,
  "Naro": 13587,
  "Narodow": 4798,
  "Narodowa</w>": 43402,
  "Narodowe</w>": 32883,
  "Narodowego</w>": 9195,
  "Narodowej</w>": 8658,
  "Narodowy</w>": 15643,
  "Narodowym</w>": 19200,
  "Narodzenia</w>": 19446,
  "Narodzenie</w>": 37245,
  "Narodów</w>": 23733,
  "Narut": 33835,
  "Narutowicza</w>": 35279,
  "Nas</w>": 42892,
  "Nasi</w>": 15262,
  "Nasto": 44375,
  "Następ": 6488,
  "Następna</w>": 35281,
  "Następne</w>": 28424,
  "Następnego</w>": 26173,
  "Następnie</w>": 9972,
  "Następny</w>": 33491,
  "Następnym</w>": 28577,
  "Nasz</w>": 10852,
  "Nasza</w>": 11696,
  "Nasze</w>": 12044,
  "Naszym</w>": 17363,
  "Naszą</w>": 40086,
  "Nat": 26291,
  "Nat</w>": 39955,
  "Nata": 11674,
  "Natalia</w>": 14555,
  "Nati": 24100,
  "National</w>": 31883,
  "Nato": 5000,
  "Natomiast</w>": 5016,
  "Natura</w>": 37456,
  "Natural": 24747,
  "Naturalnie</w>": 46856,
  "Natych": 26108,
  "Natychmiast</w>": 28206,
  "Nau": 5914,
  "Nauczycie": 11165,
  "Nauczyciel</w>": 37114,
  "Nauczyciela</w>": 39856,
  "Nauczyciele</w>": 23298,
  "Nauk</w>": 19190,
  "Nauka</w>": 26743,
  "Nauki</w>": 19975,
  "Naukowcy</w>": 37320,
  "Nawet</w>": 2166,
  "Nawoj": 32161,
  "Nawro": 23781,
  "Nawrocki</w>": 45370,
  "Naz": 10964,
  "Nazare": 47355,
  "Nazwa</w>": 16180,
  "Nazwisko</w>": 47727,
  "Nazy": 29130,
  "Nałę": 35853,
  "Ndziorl</w>": 33925,
  "Ne": 4334,
  "Nea": 45479,
  "Neg": 36703,
  "Nego": 40059,
  "Negrin</w>": 46548,
  "Neko</w>": 38914,
  "Nekro": 30946,
  "Nekrolog</w>": 33231,
  "Nel": 35674,
  "Neptu": 43737,
  "Ner": 30322,
  "Net": 25591,
  "Net</w>": 47883,
  "Neu": 25587,
  "Neuro": 49498,
  "New": 19505,
  "New</w>": 12003,
  "Newcastle</w>": 42609,
  "News": 41694,
  "News</w>": 36609,
  "Newsuser</w>": 43543,
  "Ni": 3157,
  "Niby</w>": 28383,
  "Nic</w>": 7579,
  "Nice": 47788,
  "Nicho": 35301,
  "Nico": 27102,
  "Niczego</w>": 43707,
  "Nie": 2415,
  "Nie</w>": 2351,
  "Niebawem</w>": 30181,
  "Niebie": 31619,
  "Niech</w>": 2381,
  "Nieco</w>": 21374,
  "Niedawno</w>": 13330,
  "Niedzie": 43002,
  "Niedziel": 25798,
  "Niedziela</w>": 23397,
  "Niedługo</w>": 25610,
  "Niedźwie": 15526,
  "Niedźwiedź</w>": 29595,
  "Niekiedy</w>": 33159,
  "Niektóre</w>": 11483,
  "Niektórzy</w>": 9371,
  "Niel": 41775,
  "Niem": 4096,
  "Niemal</w>": 21168,
  "Niemca</w>": 37122,
  "Niemcami</w>": 19406,
  "Niemcom</w>": 35616,
  "Niemcy</w>": 6856,
  "Niemczech</w>": 8219,
  "Niemczyk</w>": 35266,
  "Niemców</w>": 12875,
  "Niemie": 5898,
  "Niemiec</w>": 6667,
  "Niemiecki</w>": 47320,
  "Niemieckiej</w>": 45693,
  "Niemniej</w>": 18312,
  "Nieoficjalnie</w>": 23825,
  "Niepełnos": 17164,
  "Niepełnosprawnych</w>": 21694,
  "Niepodległ": 14794,
  "Niepodległej</w>": 38497,
  "Niepodległości</w>": 20334,
  "Niepoka": 46462,
  "Niepołomi": 13400,
  "Niepołomic</w>": 37294,
  "Niepołomicach</w>": 31641,
  "Niepołomice</w>": 22679,
  "Nieraz</w>": 39457,
  "Nierucho": 17985,
  "Nieruchomości</w>": 21080,
  "Niesio": 46784,
  "Niespo": 38850,
  "Niespodzi": 40204,
  "Niestety</w>": 5082,
  "Niewiele</w>": 20120,
  "Niewykluczone</w>": 22850,
  "Niewątpliwie</w>": 28112,
  "Niez": 30019,
  "Niezależ": 16719,
  "Niezależnie</w>": 23897,
  "Niezbecki</w>": 40187,
  "Nieznany</w>": 46783,
  "Niezwykle</w>": 37285,
  "Nig": 45727,
  "Nigdy</w>": 10482,
  "Nigdzie</w>": 48109,
  "Niger": 40423,
  "Night</w>": 42150,
  "Niki": 33065,
  "Niko": 17988,
  "Nikodem</w>": 41325,
  "Nikogo</w>": 41830,
  "Nikomu</w>": 43735,
  "Nikoła": 45275,
  "Nikt</w>": 7552,
  "Nim</w>": 26605,
  "Nina</w>": 41588,
  "Nixe</w>": 19369,
  "Nizi": 48184,
  "Niż": 39502,
  "Niżne</w>": 48240,
  "No": 5086,
  "No</w>": 5175,
  "Nob": 22130,
  "Nobla</w>": 25841,
  "Noc": 28034,
  "Noc</w>": 28783,
  "Nocy</w>": 49841,
  "Nog": 45355,
  "Noga</w>": 49305,
  "Nor": 5862,
  "Norbert</w>": 29789,
  "Nord</w>": 39795,
  "Norman": 28872,
  "Normandii</w>": 45163,
  "Norwe": 10604,
  "Norwegia</w>": 23985,
  "Norwegii</w>": 22265,
  "Norwi": 30170,
  "Norwida</w>": 43508,
  "Nory": 44631,
  "Nos": 28139,
  "Nosal</w>": 46217,
  "Not": 21421,
  "Note": 30706,
  "Nov": 36451,
  "Nov</w>": 17269,
  "Nova</w>": 48522,
  "Now": 7764,
  "Nowa": 5516,
  "Nowa</w>": 7696,
  "Nowacki</w>": 42567,
  "Nowak</w>": 7034,
  "Nowaka</w>": 24181,
  "Nowakowski</w>": 28332,
  "Nowe</w>": 8445,
  "Nowego</w>": 6993,
  "Nowej</w>": 9803,
  "Noweli": 42654,
  "Nowelizacja</w>": 44695,
  "Nowi": 12323,
  "Nowi</w>": 41432,
  "Nowicki</w>": 21642,
  "Nowo": 13464,
  "Nowoczes": 33825,
  "Nowohu": 40212,
  "Nowosie": 41508,
  "Nowosąde": 32265,
  "Nowotar": 27014,
  "Nowością</w>": 41899,
  "Nowy</w>": 4740,
  "Nowych</w>": 44535,
  "Nowym</w>": 5256,
  "Nową</w>": 32350,
  "Nożnej</w>": 16313,
  "Np</w>": 20750,
  "Nr</w>": 9117,
  "Nu": 15246,
  "Numer</w>": 45289,
  "Nur": 43590,
  "Ny": 13104,
  "NÓW</w>": 19687,
  "Nędza</w>": 47757,
  "O": 51,
  "O</w>": 1063,
  "OB": 27953,
  "OBO": 43054,
  "OC</w>": 22428,
  "OD": 9993,
  "OD</w>": 45555,
  "OE": 47711,
  "OECD</w>": 49799,
  "OF": 15639,
  "OFE</w>": 19218,
  "OGRO": 33503,
  "OGRODZENIA</w>": 45715,
  "OHP</w>": 48204,
  "OK</w>": 14320,
  "OKA": 44031,
  "OKO": 41495,
  "OL": 14944,
  "OLA</w>": 43566,
  "OLI": 36704,
  "OM</w>": 41397,
  "ON": 11119,
  "ON</w>": 16484,
  "ONZ</w>": 15941,
  "OPE": 41306,
  "OPZZ</w>": 41398,
  "OR": 12191,
  "OR</w>": 33783,
  "OS": 33554,
  "OS</w>": 18571,
  "OSP</w>": 9516,
  "OST": 35849,
  "OSiR</w>": 35525,
  "OT</w>": 31531,
  "OW": 3120,
  "OWA": 8637,
  "OWA</w>": 9570,
  "OWANIA</w>": 35605,
  "OWANIE</w>": 13936,
  "OWE": 33335,
  "OWE</w>": 7757,
  "OWEJ</w>": 44555,
  "OWI": 7207,
  "OWICE</w>": 11009,
  "OWICZ</w>": 34819,
  "OWIE": 26801,
  "OWIE</w>": 36091,
  "OWO</w>": 32977,
  "OWOD": 36917,
  "OWSKA</w>": 15116,
  "OWSKI</w>": 13798,
  "OWY</w>": 11270,
  "OZ</w>": 47272,
  "OZPN</w>": 48779,
  "Ob": 3484,
  "Oba": 10653,
  "Oba</w>": 17264,
  "Obaj</w>": 14101,
  "Obawi": 23868,
  "Obawiam</w>": 32652,
  "Obchody</w>": 42084,
  "Obe": 26891,
  "Obec": 4855,
  "Obecna</w>": 34118,
  "Obecne</w>": 44821,
  "Obecnie</w>": 5456,
  "Obecność</w>": 38454,
  "Obecny</w>": 23144,
  "Obej": 39663,
  "Obejmuje</w>": 47809,
  "Ober": 26104,
  "Obi": 48506,
  "Obie": 11927,
  "Obie</w>": 13725,
  "Obiec": 40169,
  "Obiekt</w>": 26070,
  "Obja": 37209,
  "Obli": 26897,
  "Obo": 9447,
  "Oboje</w>": 31362,
  "Obok</w>": 12028,
  "Obor": 28165,
  "Obowią": 17440,
  "Obowiąz": 30501,
  "Obowiązek</w>": 45299,
  "Obra": 15140,
  "Obrachun": 42756,
  "Obraz</w>": 27584,
  "Obrazy</w>": 42820,
  "Obro": 8885,
  "Obrona</w>": 48147,
  "Obrony</w>": 15100,
  "Obrońca</w>": 48084,
  "Obrońcy</w>": 25036,
  "Obsada</w>": 47414,
  "Obserw": 26887,
  "Obserwa": 28589,
  "Obszar": 45235,
  "Obszar</w>": 42696,
  "Obsłu": 36344,
  "Obsługi</w>": 31216,
  "Obu": 34006,
  "Obwod": 37412,
  "Oby": 7662,
  "Oby</w>": 26140,
  "Obydwa</w>": 46368,
  "Obywa": 8774,
  "Obywatel": 9869,
  "Obywatelska</w>": 26489,
  "Obywatelskich</w>": 35673,
  "Obywatelskiej</w>": 16372,
  "Oc": 39209,
  "Oce": 19763,
  "Ocena</w>": 36549,
  "Och": 32187,
  "Ocho": 45997,
  "Ochot": 13186,
  "Ochotniczej</w>": 28401,
  "Ochotniczych</w>": 47648,
  "Ochro": 6881,
  "Ochrona</w>": 34379,
  "Ochrony</w>": 7508,
  "Oct</w>": 18923,
  "Ocze": 44917,
  "Oczeki": 42591,
  "Oczy": 32226,
  "Oczy</w>": 44304,
  "Oczywiście</w>": 5581,
  "Od": 3134,
  "Od</w>": 3169,
  "Odbędzie</w>": 39262,
  "Oddział</w>": 16223,
  "Oddziału</w>": 14860,
  "Ode": 15743,
  "Odkry": 12815,
  "Odkryta</w>": 23009,
  "Odkrył</w>": 33562,
  "Odkąd</w>": 39920,
  "Odo": 49834,
  "Odp</w>": 23415,
  "Odpowiad": 28593,
  "Odpowie": 12682,
  "Odpowiedzi": 27443,
  "Odpowiedzi</w>": 41090,
  "Odpowiedź</w>": 21403,
  "Odra</w>": 17260,
  "Odro": 24865,
  "Odrodzenia</w>": 39212,
  "Odry</w>": 19578,
  "Odrze</w>": 47548,
  "Odrą</w>": 31823,
  "Odtąd</w>": 49327,
  "Odwie": 25379,
  "Odwoła": 28871,
  "Ody": 32789,
  "Odz": 22822,
  "Odzna": 24637,
  "Odzy": 37149,
  "Of</w>": 38463,
  "Ofe": 45215,
  "Ofer": 16083,
  "Oferta</w>": 29768,
  "Oferty</w>": 28183,
  "Offi": 20045,
  "Office</w>": 38461,
  "Officium</w>": 28631,
  "Ofi": 9807,
  "Ofiar": 48694,
  "Ofiar</w>": 44629,
  "Oficer": 33539,
  "Oficjal": 18984,
  "Oficjalne</w>": 44443,
  "Oficjalnie</w>": 34827,
  "Og": 13969,
  "Ogie": 25349,
  "Ogień</w>": 28397,
  "Oglą": 27063,
  "Ogni": 22972,
  "Ograni": 35431,
  "Ogro": 17042,
  "Ogrod": 34175,
  "Ogrom": 33888,
  "Ogród</w>": 40898,
  "Ogó": 28704,
  "Ogól": 6605,
  "Ogólnie</w>": 38126,
  "Ogólno": 7367,
  "Ogólnokształc": 10842,
  "Ogólnokształcące</w>": 29663,
  "Ogólnokształcącego</w>": 20874,
  "Ogólnokształcących</w>": 26344,
  "Ogólnokształcącym</w>": 37329,
  "Ogólnopolski</w>": 32675,
  "Ogólnopolskiego</w>": 25758,
  "Ogólnopolskiej</w>": 41738,
  "Ogólnopolskim</w>": 41351,
  "Ogółem</w>": 38680,
  "Ogło": 27134,
  "Ogłoszenia</w>": 11965,
  "Oj": 5755,
  "Oj</w>": 36076,
  "Ojca</w>": 12405,
  "Ojcem</w>": 43605,
  "Ojciec</w>": 10553,
  "Ojcu</w>": 38649,
  "Ojcze</w>": 33355,
  "Ojczyzna</w>": 45692,
  "Ojczyzny</w>": 36714,
  "Ok": 21804,
  "Ok</w>": 34180,
  "Okaz": 29358,
  "Okazało</w>": 9107,
  "Okazuje</w>": 13187,
  "Oklaski</w>": 8605,
  "Okna</w>": 49690,
  "Oko": 11725,
  "Oko</w>": 46130,
  "Okocim": 19404,
  "Okocimski</w>": 28994,
  "Okocimskiego</w>": 45187,
  "Okolicz": 47792,
  "Około</w>": 12433,
  "Okra": 43701,
  "Okre": 22501,
  "Okres</w>": 25649,
  "Okrą": 34219,
  "Okrę": 6822,
  "Okręg": 7950,
  "Okręg</w>": 42527,
  "Okręgowa</w>": 32576,
  "Okręgowego</w>": 18028,
  "Okręgowej</w>": 18873,
  "Okręgowy</w>": 22740,
  "Okręgowym</w>": 33462,
  "Okręgu</w>": 27298,
  "Oku": 32122,
  "Okę": 42631,
  "Ol": 4173,
  "Ola": 33417,
  "Ola</w>": 22598,
  "Old": 44977,
  "Old</w>": 29871,
  "Ole": 11108,
  "Olej": 18183,
  "Olejni": 30522,
  "Olejniczak</w>": 36775,
  "Olejnik</w>": 40584,
  "Olek": 19895,
  "Oleks": 31129,
  "Oleksego</w>": 36252,
  "Oleksy</w>": 22675,
  "Oles": 42676,
  "Oleńka</w>": 43819,
  "Olga</w>": 22489,
  "Olgier": 32272,
  "Olgierd</w>": 36495,
  "Oli": 6003,
  "Oli</w>": 47673,
  "Olimp</w>": 47587,
  "Olimpi": 7557,
  "Olimpia</w>": 15692,
  "Olimpiady</w>": 35388,
  "Olimpii</w>": 32993,
  "Olimpijskich</w>": 36257,
  "Olin</w>": 45866,
  "Olisade": 47577,
  "Olisadebe</w>": 47663,
  "Olku": 8745,
  "Olkusz</w>": 18629,
  "Olkusza</w>": 23782,
  "Olkuszu</w>": 16847,
  "Olsz": 34361,
  "Olsza": 46237,
  "Olsza</w>": 48198,
  "Olszewski</w>": 20884,
  "Olszewskiego</w>": 36009,
  "Olszty": 12807,
  "Olsztyn</w>": 24348,
  "Olsztyna</w>": 39299,
  "Olsztynie</w>": 26075,
  "Oly": 27822,
  "Olympi": 28409,
  "Olympique</w>": 43680,
  "Omega</w>": 48925,
  "On": 18722,
  "On</w>": 5476,
  "Ona</w>": 13837,
  "One</w>": 17215,
  "Oni</w>": 12369,
  "Ony": 46799,
  "Op": 12171,
  "Opa": 14956,
  "Ope": 47570,
  "Opel</w>": 34050,
  "Open</w>": 19717,
  "Oper": 27839,
  "Opera": 15034,
  "Opera</w>": 36685,
  "Operacja</w>": 43984,
  "Operacyjnego</w>": 31026,
  "Opery</w>": 33868,
  "Opi": 14503,
  "Opie": 10227,
  "Opieki</w>": 15596,
  "Opieku": 26808,
  "Opinia</w>": 42296,
  "Opinie</w>": 36183,
  "Opis</w>": 23307,
  "Opix</w>": 33855,
  "Opo": 21991,
  "Opocz": 36639,
  "Opoczno</w>": 47617,
  "Opol": 32932,
  "Opola</w>": 26238,
  "Opole</w>": 20257,
  "Opolu</w>": 19310,
  "Opowiad": 25844,
  "Opowiada</w>": 47243,
  "Opowieści</w>": 44632,
  "Opozycja</w>": 42590,
  "Oprac": 31025,
  "Oprócz</w>": 7366,
  "Opti": 35600,
  "Opty": 36207,
  "Optymi": 46964,
  "Opła": 20764,
  "Opłata</w>": 42043,
  "Opłaty</w>": 45884,
  "Or": 3342,
  "Ora": 15512,
  "Oran": 33463,
  "Orange</w>": 36929,
  "Orawa</w>": 42475,
  "Orderu</w>": 30890,
  "Ordyna": 33145,
  "Ore": 41172,
  "Organ": 49367,
  "Organi": 5761,
  "Organiz": 35603,
  "Organiza": 7644,
  "Organizacja</w>": 23381,
  "Organizacji</w>": 18345,
  "Organizator</w>": 47827,
  "Organizatorami</w>": 30198,
  "Organizatorem</w>": 20593,
  "Organizatorzy</w>": 12551,
  "Ori": 25266,
  "Orien": 38331,
  "Original</w>": 34474,
  "Orion</w>": 27215,
  "Orkan</w>": 19027,
  "Orkana</w>": 37544,
  "Orkiest": 11225,
  "Orkiestra</w>": 20247,
  "Orkiestry</w>": 19943,
  "Orlan": 42961,
  "Orlando</w>": 45395,
  "Orle": 39902,
  "Orlen</w>": 22667,
  "Orlenu</w>": 42487,
  "Orlik</w>": 37061,
  "Orlinski</w>": 47966,
  "Ory": 37332,
  "Orygina": 44146,
  "Orze": 7760,
  "Orzechowski</w>": 37128,
  "Orzeł</w>": 9709,
  "Orła</w>": 24215,
  "Orłem</w>": 49692,
  "Orłowski</w>": 44047,
  "Orły</w>": 33460,
  "Os": 10254,
  "Osa": 34978,
  "Oscar": 49693,
  "Oscara</w>": 34919,
  "Osi": 43848,
  "Osie": 10345,
  "Osied": 19161,
  "Osiedla</w>": 27421,
  "Osiedle</w>": 28607,
  "Osiek</w>": 34422,
  "Osiem</w>": 36562,
  "Osią": 25621,
  "Osiągnięcia</w>": 48394,
  "Oskar": 16469,
  "Oskar</w>": 39327,
  "Oskarżony</w>": 39365,
  "Oslo</w>": 38722,
  "Osob": 7322,
  "Osoba</w>": 20856,
  "Osobiście</w>": 28649,
  "Osoby</w>": 11903,
  "Ossoli": 49429,
  "Ost": 6517,
  "Osta": 4623,
  "Ostat": 6218,
  "Ostate": 9580,
  "Ostateczna</w>": 49951,
  "Ostatecznie</w>": 11817,
  "Ostatni</w>": 14299,
  "Ostatnia</w>": 20989,
  "Ostatnie</w>": 14598,
  "Ostatnim</w>": 34632,
  "Ostatnio</w>": 9853,
  "Ostatnią</w>": 42542,
  "Osto": 45293,
  "Ostro": 17638,
  "Ostrow": 15607,
  "Ostrowa</w>": 32633,
  "Ostrowcu</w>": 45528,
  "Ostrowie</w>": 24991,
  "Ostrowiec</w>": 31064,
  "Ostrowska</w>": 49205,
  "Ostrowski</w>": 25995,
  "Ostrze": 18698,
  "Ostrzeszowie</w>": 43197,
  "Ostrzeszów</w>": 44416,
  "Ostrów</w>": 20919,
  "Osu": 42706,
  "Oszcz": 29161,
  "Oszczęd": 37067,
  "Oszu": 42066,
  "Osób</w>": 18799,
  "Ot": 12915,
  "Ot</w>": 36110,
  "Oto": 46767,
  "Oto</w>": 10398,
  "Otrzy": 13034,
  "Otrzymaliśmy</w>": 42212,
  "Otrzymał</w>": 40387,
  "Otto</w>": 41323,
  "Otwar": 13617,
  "Otwarcie</w>": 28334,
  "Otwarte</w>": 41388,
  "Otwiera": 24160,
  "Otwieram</w>": 30166,
  "Oty": 38853,
  "Otóż</w>": 7856,
  "Our</w>": 44023,
  "Ow": 13965,
  "Owczar": 39745,
  "Owczarek</w>": 42260,
  "Owo": 32244,
  "Owszem</w>": 16335,
  "Ox": 43453,
  "Ozna": 13309,
  "Oznacza</w>": 14067,
  "Ozor": 47871,
  "Oł": 35031,
  "OŚ": 35544,
  "OŚWIĘ": 41750,
  "OŚWIĘCIM</w>": 42519,
  "Oś": 46446,
  "Ośrodek</w>": 9144,
  "Ośrodka</w>": 8495,
  "Ośrodkiem</w>": 48252,
  "Ośrodku</w>": 14489,
  "Oświadczenie</w>": 35253,
  "Oświat": 15351,
  "Oświaty</w>": 17958,
  "Oświe": 34900,
  "Oświecenia</w>": 40155,
  "Oświęci": 6125,
  "Oświęcim</w>": 14232,
  "Oświęcimia</w>": 15987,
  "Oświęcimiu</w>": 10350,
  "Oż": 32935,
  "Ożóg</w>": 38695,
  "P": 5469,
  "P</w>": 1087,
  "PA": 4088,
  "PA</w>": 11468,
  "PAN</w>": 13419,
  "PAP</w>": 8195,
  "PAR": 10913,
  "PARKIE": 42015,
  "PAT</w>": 42278,
  "PAW": 34512,
  "PAWE": 36808,
  "PAWEŁ</w>": 37708,
  "PAZ</w>": 48293,
  "PB</w>": 37917,
  "PC": 29523,
  "PC</w>": 20429,
  "PCK</w>": 19931,
  "PD</w>": 31235,
  "PE": 9402,
  "PE</w>": 28360,
  "PEC</w>": 34879,
  "PER": 38801,
  "PF": 30328,
  "PFRON</w>": 35454,
  "PG": 14078,
  "PG</w>": 16025,
  "PGC</w>": 39700,
  "PGR</w>": 35939,
  "PH": 25598,
  "PH</w>": 26411,
  "PHARE</w>": 46097,
  "PI": 5220,
  "PIA": 32972,
  "PIE": 13314,
  "PIL": 38165,
  "PILNIE</w>": 49352,
  "PIM</w>": 39854,
  "PIO": 23799,
  "PIOTR</w>": 29346,
  "PIT</w>": 18632,
  "PIŁ": 28190,
  "PIŁKA</w>": 39546,
  "PK": 5917,
  "PK</w>": 14588,
  "PKB</w>": 20137,
  "PKN</w>": 27469,
  "PKO</w>": 16822,
  "PKP</w>": 9367,
  "PKS</w>": 13476,
  "PL": 14193,
  "PL</w>": 9567,
  "PLA": 29145,
  "PLN</w>": 27726,
  "PM</w>": 26850,
  "PMG</w>": 28817,
  "PN</w>": 6933,
  "PO": 3755,
  "PO</w>": 7268,
  "POD": 18641,
  "POD</w>": 37540,
  "POKO": 10765,
  "POKOJ": 10864,
  "POKOJOWE</w>": 11377,
  "POKÓJ</w>": 28720,
  "POL": 10272,
  "POL</w>": 41879,
  "POLI": 22237,
  "POLNOC</w>": 27176,
  "POLS": 41960,
  "POLSKA</w>": 34915,
  "POLSKI</w>": 36677,
  "POMO": 30835,
  "POMOC</w>": 48739,
  "POSZU": 28893,
  "POSZUKU": 30150,
  "POSZUKUJĘ</w>": 44028,
  "POWI": 27143,
  "POWIAT</w>": 37360,
  "POZNA": 40841,
  "POŻY": 41448,
  "PP</w>": 10903,
  "PPS</w>": 39363,
  "PR": 7063,
  "PR</w>": 6631,
  "PRA": 11981,
  "PRACOW": 48589,
  "PRAW": 37871,
  "PRAWA</w>": 40353,
  "PRE": 29681,
  "PRL</w>": 10618,
  "PRO": 14382,
  "PRO</w>": 48195,
  "PROWA": 18606,
  "PROWADZ": 18710,
  "PRZE": 7494,
  "PRZED": 41791,
  "PRZEPROWADZ": 19286,
  "PRZEPROWADZA</w>": 23778,
  "PRZEPROWADZKI</w>": 47381,
  "PRZY": 17038,
  "PRZYJMĘ</w>": 29572,
  "PRĄ": 39134,
  "PS": 7204,
  "PS</w>": 7690,
  "PSL</w>": 9027,
  "PSP</w>": 15649,
  "PT": 11780,
  "PT</w>": 48009,
  "PTE</w>": 38735,
  "PTTK</w>": 20894,
  "PU": 12376,
  "PUP</w>": 24209,
  "PW": 14399,
  "PW</w>": 28951,
  "PWN</w>": 36616,
  "PWST</w>": 45026,
  "PWSZ</w>": 24309,
  "PY": 36202,
  "PZ": 5499,
  "PZ</w>": 46839,
  "PZPN</w>": 13839,
  "PZPR</w>": 17108,
  "PZU</w>": 11908,
  "PZZ</w>": 36054,
  "Pa": 2260,
  "PaPi</w>": 49860,
  "Pabi": 45850,
  "Pabia": 17447,
  "Pabianic</w>": 47324,
  "Pabianicach</w>": 36168,
  "Pabianice</w>": 37530,
  "Pacho": 40509,
  "Pacjen": 20455,
  "Pacjenci</w>": 35141,
  "Pacjent</w>": 47418,
  "Pack</w>": 48749,
  "Pacu": 44113,
  "Pacyfi": 41421,
  "Pad": 16138,
  "Pade": 27946,
  "Padere": 29980,
  "Paderewskiego</w>": 34231,
  "Paj": 15974,
  "Pają": 24797,
  "Pająk</w>": 31573,
  "Paki": 31175,
  "Pal": 9065,
  "Pala": 36857,
  "Pale": 15832,
  "Palesty": 25956,
  "Pali": 27853,
  "Paluch</w>": 30861,
  "Pami": 42242,
  "Pamię": 7127,
  "Pamięci</w>": 16811,
  "Pamięt": 42817,
  "Pamięta": 18536,
  "Pamiętaj</w>": 36291,
  "Pamiętajmy</w>": 28006,
  "Pamiętam</w>": 15212,
  "Pamięć</w>": 36256,
  "Pan": 4483,
  "Pan</w>": 3806,
  "Pana": 36125,
  "Pana</w>": 8087,
  "Panathi": 42403,
  "Panathinai": 42669,
  "Pancer": 29551,
  "Panek</w>": 45689,
  "Panem</w>": 42717,
  "Pani</w>": 5270,
  "Panie</w>": 4381,
  "Panią</w>": 41028,
  "Panna</w>": 49628,
  "Panny</w>": 24110,
  "Panora": 39337,
  "Panowie</w>": 11921,
  "Panslavista</w>": 8818,
  "Panu</w>": 16460,
  "Papie": 9187,
  "Papier": 23021,
  "Papierów</w>": 32780,
  "Papież</w>": 18446,
  "Papieża</w>": 21129,
  "Papro": 47232,
  "Par": 3520,
  "Para": 9538,
  "Para</w>": 42368,
  "Paradok": 46002,
  "Parafi": 36472,
  "Parafia</w>": 34165,
  "Parag": 49404,
  "Paris</w>": 41887,
  "Park</w>": 13326,
  "Parku</w>": 12300,
  "Parlamen": 8164,
  "Parlament</w>": 39571,
  "Parlamentar": 10118,
  "Parlamentarnego</w>": 14110,
  "Parlamentarny</w>": 19799,
  "Parlamentu</w>": 22164,
  "Part": 9186,
  "Parti": 36949,
  "Partia</w>": 21608,
  "Partii</w>": 16464,
  "Partner": 31905,
  "Partner</w>": 47222,
  "Party": 19123,
  "Partyka</w>": 45290,
  "Partyzan": 30738,
  "Pary": 8380,
  "Paryż</w>": 28158,
  "Paryża</w>": 20614,
  "Paryżu</w>": 13338,
  "Parzy": 49753,
  "Parę</w>": 35185,
  "Pas": 26647,
  "Pas</w>": 40313,
  "Pasa": 45921,
  "Pasażer": 37256,
  "Pasażerowie</w>": 48912,
  "Pasi": 40268,
  "Paste": 32509,
  "Paster": 27570,
  "Pasterza</w>": 42801,
  "Pastu": 32569,
  "Pasz": 36873,
  "Pat": 5664,
  "Pater": 45584,
  "Pater</w>": 38056,
  "Patri": 20287,
  "Patro": 15802,
  "Patronat</w>": 25497,
  "Patry": 10657,
  "Patrycja</w>": 21575,
  "Patryk</w>": 18096,
  "Patrz</w>": 48199,
  "Patrząc</w>": 32279,
  "Pau": 30544,
  "Paul</w>": 21470,
  "Paula</w>": 29430,
  "Pauli": 10175,
  "Paulina</w>": 15095,
  "Paulinka</w>": 25864,
  "Paulo</w>": 40190,
  "Pauz": 28568,
  "Paw": 4184,
  "Pawe": 3752,
  "Pawe</w>": 48122,
  "Pawel</w>": 19282,
  "Pawelec</w>": 42360,
  "Paweł</w>": 3989,
  "Pawlak</w>": 17046,
  "Pawlaka</w>": 32078,
  "Pawli": 23321,
  "Pawlik</w>": 30013,
  "Pawlu": 34714,
  "Pawła</w>": 6052,
  "Pawłem</w>": 28039,
  "Pawłowi</w>": 34614,
  "Pawłowski</w>": 22165,
  "Pał": 23675,
  "Pała": 11278,
  "Pałac</w>": 21831,
  "Pałacu</w>": 18945,
  "Pałka</w>": 28645,
  "Pału": 45404,
  "Pańskiego</w>": 38648,
  "Pańskiej</w>": 48097,
  "Państ": 6127,
  "Państw": 6431,
  "Państwa</w>": 7978,
  "Państwo</w>": 11221,
  "Państwowa</w>": 27787,
  "Państwowe</w>": 32190,
  "Państwowego</w>": 23584,
  "Państwowej</w>": 9902,
  "Państwowy</w>": 43818,
  "Państwowych</w>": 28860,
  "Państwowym</w>": 49379,
  "Państwową</w>": 45747,
  "Państwu</w>": 49620,
  "Paździer": 47387,
  "Pci": 37694,
  "Pe": 3454,
  "Pear": 49030,
  "Pedagogi": 17780,
  "Pedagogicznej</w>": 28846,
  "Peder": 32498,
  "Pedersen</w>": 37808,
  "Pedro</w>": 49511,
  "Pek": 47042,
  "Pekao</w>": 32333,
  "Pekinie</w>": 32681,
  "Pel": 17086,
  "Peli": 39498,
  "Pelpli": 33204,
  "Pen": 12857,
  "Pende": 41524,
  "Penta": 41380,
  "Per": 7612,
  "Pere": 35069,
  "Perfe": 45845,
  "Perso": 38953,
  "Perspe": 47090,
  "Peru": 45532,
  "Peru</w>": 39151,
  "Pet": 41099,
  "Peter": 16725,
  "Peter</w>": 18834,
  "Petera</w>": 44056,
  "Peterka</w>": 46829,
  "Petersburgu</w>": 41109,
  "Petro": 26741,
  "Peugeot</w>": 41938,
  "Pew": 8643,
  "Pewien</w>": 46300,
  "Pewne</w>": 28132,
  "Pewnego</w>": 22433,
  "Pewnie</w>": 15042,
  "Peyton</w>": 35990,
  "Peł": 13616,
  "Pełna</w>": 46961,
  "Pełno": 39333,
  "Pełnomoc": 42253,
  "Phi": 20485,
  "Phil": 28727,
  "Philadel": 42613,
  "Philadelphia</w>": 46231,
  "Philip": 30462,
  "Pho": 28305,
  "Phoeni": 35322,
  "Phoenix</w>": 36297,
  "Pi": 2400,
  "Pi</w>": 35203,
  "PiS</w>": 6813,
  "Pia": 6361,
  "Piase": 23933,
  "Piasecki</w>": 47814,
  "Piaski</w>": 30266,
  "Piast": 21953,
  "Piast</w>": 15165,
  "Piasta</w>": 32573,
  "Piastów</w>": 35824,
  "Pie": 2825,
  "Piech": 27601,
  "Piechota</w>": 48367,
  "Piechoty</w>": 29629,
  "Piekar": 30023,
  "Piekarski</w>": 41363,
  "Piekary</w>": 47234,
  "Piel": 25542,
  "Pielgrzy": 26616,
  "Pielę": 25384,
  "Pielęgni": 28396,
  "Pieni": 7916,
  "Pienią": 40512,
  "Pieniądze</w>": 9779,
  "Pienię": 31663,
  "Pieniędzy</w>": 44993,
  "Pieniężnej</w>": 38902,
  "Pier": 3619,
  "Pierre</w>": 33547,
  "Pierw": 31642,
  "Pierwo": 25189,
  "Pierwotnie</w>": 34989,
  "Pierwsi</w>": 33193,
  "Pierwsz": 4383,
  "Pierwsza</w>": 8798,
  "Pierwsze</w>": 7445,
  "Pierwszego</w>": 27755,
  "Pierwszej</w>": 48966,
  "Pierwszy</w>": 6751,
  "Pierwszym</w>": 17118,
  "Pierwszą</w>": 16482,
  "Pierzch": 43833,
  "Pierście": 41365,
  "Pies</w>": 33891,
  "Piet": 20672,
  "Pietra": 23088,
  "Pietras</w>": 48862,
  "Pietru": 26938,
  "Pietrzak</w>": 27480,
  "Pietrzy": 13211,
  "Pietrzyk</w>": 39052,
  "Pietrzykowski</w>": 15999,
  "Pieśni</w>": 29249,
  "Pij": 27792,
  "Pijany</w>": 44452,
  "Pik": 36404,
  "Pikar": 44962,
  "Piknik</w>": 46249,
  "Pil": 13313,
  "Pilch</w>": 33055,
  "Pile</w>": 20218,
  "Pilzno</w>": 49405,
  "Pin": 19439,
  "Pino": 49858,
  "Pio": 32241,
  "Pio</w>": 28525,
  "Piosen": 17271,
  "Piosenki</w>": 21681,
  "Piot": 3036,
  "Piotr": 10046,
  "Piotr</w>": 3498,
  "Piotra</w>": 7943,
  "Piotrco": 36646,
  "Piotrek</w>": 26745,
  "Piotrem</w>": 27865,
  "Piotrkowa</w>": 45303,
  "Piotrkowie</w>": 30176,
  "Piotrkowskiej</w>": 34513,
  "Piotrków</w>": 40503,
  "Piotrowi": 47289,
  "Piotrowi</w>": 41914,
  "Piotrowski</w>": 18892,
  "Pira": 48896,
  "Pire": 47666,
  "Pis": 15063,
  "Pisa": 21556,
  "Pisar": 45676,
  "Piskor": 35613,
  "Pisma</w>": 41545,
  "Pismo</w>": 29569,
  "Piszczek</w>": 37702,
  "Pisze</w>": 43652,
  "Piszę</w>": 48733,
  "Piw": 11770,
  "Piwnicy</w>": 42873,
  "Piwnicznej</w>": 38783,
  "Piwow": 30512,
  "Piwowarczyk</w>": 43132,
  "Piór": 49036,
  "Pią": 32658,
  "Piątek</w>": 17691,
  "Piątka</w>": 49402,
  "Piątkow": 23277,
  "Pię": 11188,
  "Pięciu</w>": 37698,
  "Pięk": 12447,
  "Piękna</w>": 41862,
  "Piękne</w>": 49750,
  "Pięknych</w>": 25284,
  "Pięt": 28468,
  "Pięć</w>": 19628,
  "Pił": 5092,
  "Piła</w>": 22578,
  "Piłka</w>": 16574,
  "Piłkarska</w>": 47825,
  "Piłkarz</w>": 31349,
  "Piłkarze</w>": 12513,
  "Piłki</w>": 14550,
  "Piłsud": 11085,
  "Piłsudski</w>": 37342,
  "Piłsudskiego</w>": 13019,
  "Piły</w>": 31503,
  "Pl</w>": 40079,
  "Pla": 4878,
  "Plac": 22506,
  "Plac</w>": 28845,
  "Placu</w>": 32376,
  "Placówka</w>": 34373,
  "Plan": 9113,
  "Plan</w>": 19991,
  "Plane": 43977,
  "Planowane</w>": 43852,
  "Planowania</w>": 44561,
  "Planuje</w>": 48233,
  "Planujemy</w>": 37675,
  "Plany</w>": 28357,
  "Plat": 9246,
  "Platforma</w>": 19086,
  "Platformy</w>": 14450,
  "Play</w>": 33645,
  "Ple": 12720,
  "Plebiscy": 38179,
  "Pli": 38878,
  "Plik</w>": 22366,
  "Plu": 10147,
  "Plus</w>": 19483,
  "Pluta</w>": 23680,
  "Po": 2105,
  "Po</w>": 28660,
  "Pobi": 44663,
  "Pobie": 27874,
  "Poby": 44316,
  "Poch": 26460,
  "Pochodzi</w>": 43981,
  "Pocie": 29071,
  "Pociąg</w>": 43751,
  "Pocz": 5680,
  "Poczta</w>": 33468,
  "Poczty</w>": 28558,
  "Początek</w>": 10914,
  "Początki</w>": 34733,
  "Początkowo</w>": 12195,
  "Pod": 2579,
  "Pod</w>": 5343,
  "Poda": 29876,
  "Podat": 38900,
  "Podatek</w>": 46075,
  "Podbeski": 24179,
  "Podbeskidzie</w>": 39711,
  "Podczas</w>": 4732,
  "Poddębi": 47775,
  "Pode": 12123,
  "Podej": 17103,
  "Podejm": 45766,
  "Podejrze": 31737,
  "Podgór": 18227,
  "Podgórski</w>": 39689,
  "Podgórza</w>": 48230,
  "Podgórze</w>": 23636,
  "Podhal": 7903,
  "Podhala": 14875,
  "Podhala</w>": 16619,
  "Podhalan</w>": 30497,
  "Podhalański</w>": 44488,
  "Podhalańskiego</w>": 45051,
  "Podhale</w>": 17481,
  "Podhalu</w>": 22444,
  "Podję": 33001,
  "Podkarpa": 12036,
  "Podkarpacia</w>": 27843,
  "Podkarpacie</w>": 41591,
  "Podkarpaciu</w>": 30024,
  "Podkarpackiego</w>": 49528,
  "Podkre": 15148,
  "Podkreśla": 40655,
  "Podkreśla</w>": 37229,
  "Podkreślił</w>": 42447,
  "Podla": 16525,
  "Podle": 47631,
  "Podob": 5186,
  "Podobna</w>": 41618,
  "Podobne</w>": 17460,
  "Podobnie</w>": 7495,
  "Podobno</w>": 15740,
  "Podobny</w>": 32736,
  "Podobną</w>": 45280,
  "Podol": 29273,
  "Podopie": 18573,
  "Podopieczni</w>": 22076,
  "Podróż": 48486,
  "Podróż</w>": 37780,
  "Podsiad": 40227,
  "Podstaw": 5764,
  "Podstawowa</w>": 17990,
  "Podstawowe</w>": 36171,
  "Podstawowej</w>": 8102,
  "Podstawowym</w>": 34218,
  "Podstawową</w>": 37264,
  "Podstawą</w>": 33578,
  "Podsum": 24236,
  "Podsumowanie</w>": 39520,
  "Podwyż": 30218,
  "Podwój": 46907,
  "Podział</w>": 31474,
  "Podzie": 26435,
  "Poe": 17734,
  "Pogo": 8848,
  "Pogoda</w>": 29651,
  "Pogoni</w>": 18842,
  "Pogonią</w>": 35570,
  "Pogot": 18953,
  "Pogotowia</w>": 29455,
  "Pogotowie</w>": 33978,
  "Pogoń</w>": 9906,
  "Pogórze</w>": 33012,
  "Poi": 45090,
  "Poja": 11347,
  "Pojawi": 20153,
  "Pojawia</w>": 41489,
  "Pojawiają</w>": 45542,
  "Pojawił</w>": 47365,
  "Pojawiły</w>": 34471,
  "Pojazd</w>": 43727,
  "Pojedy": 29096,
  "Pojedynek</w>": 41126,
  "Pojęcie</w>": 48720,
  "Pokaz": 49852,
  "Pokaz</w>": 49771,
  "Pokaza": 48246,
  "Poko": 16922,
  "Pokoju</w>": 21352,
  "Pokona": 33614,
  "Pokry": 44841,
  "Pokój</w>": 33064,
  "Pol": 2287,
  "Pol</w>": 21082,
  "PolBox</w>": 33197,
  "Pola": 3590,
  "Pola</w>": 31817,
  "Polacy</w>": 7216,
  "Polak</w>": 10952,
  "Polaka</w>": 17631,
  "Polakami</w>": 30504,
  "Polakiem</w>": 32882,
  "Polakom</w>": 23243,
  "Polaków</w>": 5915,
  "Polan</w>": 39895,
  "Poland</w>": 22599,
  "Polanie</w>": 46545,
  "Polański</w>": 46167,
  "Pole": 16016,
  "Pole</w>": 42693,
  "Polecam</w>": 44091,
  "Polecamy</w>": 45382,
  "Polega</w>": 39122,
  "Polek</w>": 34987,
  "Poli": 3370,
  "Policja</w>": 8833,
  "Policjan": 8416,
  "Policjanci</w>": 9345,
  "Policjant</w>": 37649,
  "Policji</w>": 7059,
  "Polish</w>": 44230,
  "Politechnice</w>": 34525,
  "Politechnika</w>": 22496,
  "Politechniki</w>": 15316,
  "Politycy</w>": 32313,
  "Politycznych</w>": 49673,
  "Polityka</w>": 21911,
  "Polityki</w>": 10662,
  "Polka</w>": 33963,
  "Polki</w>": 25274,
  "Polkowice</w>": 31909,
  "Polo": 5621,
  "Polok</w>": 43276,
  "Polonia</w>": 8315,
  "Polonii</w>": 13285,
  "Polonią</w>": 26337,
  "Polphar": 45681,
  "Polsa": 19708,
  "Polsat</w>": 27459,
  "Polsce</w>": 3023,
  "Polscy</w>": 24175,
  "Polska</w>": 4144,
  "Polski</w>": 2960,
  "Polskich</w>": 9731,
  "Polskie</w>": 10348,
  "Polskiego</w>": 5410,
  "Polskiej</w>": 6054,
  "Polskiemu</w>": 42454,
  "Polskim</w>": 16092,
  "Polsko</w>": 24035,
  "Polską</w>": 11695,
  "Polskę</w>": 9872,
  "Pom": 18107,
  "Pomag": 32869,
  "Pomian</w>": 48400,
  "Pomimo</w>": 15117,
  "Pomiędzy</w>": 37817,
  "Pomnik</w>": 30384,
  "Pomo": 35092,
  "Pomoc": 20837,
  "Pomoc</w>": 19487,
  "Pomocnicy</w>": 32840,
  "Pomocy</w>": 8294,
  "Pomor": 12468,
  "Pomorskiego</w>": 29797,
  "Pomorskiej</w>": 34260,
  "Pomorza</w>": 27263,
  "Pomorze</w>": 45514,
  "Pomorzu</w>": 34372,
  "Pomy": 10635,
  "Pomysł</w>": 14676,
  "Pomysłodaw": 35860,
  "Pomyślałem</w>": 47610,
  "Pomó": 44039,
  "Pon": 17076,
  "Ponad": 26171,
  "Ponad</w>": 10824,
  "Ponadgimnazjalnych</w>": 31143,
  "Ponadto</w>": 6791,
  "Poni": 24569,
  "Poniat": 32760,
  "Poniatowskiego</w>": 46603,
  "Ponie": 7094,
  "Poniedziałek</w>": 49051,
  "Ponieważ</w>": 7565,
  "Poniżej</w>": 30739,
  "Pono": 33587,
  "Ponownie</w>": 38382,
  "Ponoć</w>": 37526,
  "Popar": 43194,
  "Popie": 19696,
  "Popiela</w>": 43637,
  "Popiera": 39157,
  "Popiełu": 38278,
  "Popiełuszki</w>": 47136,
  "Popra": 19100,
  "Poprad</w>": 29044,
  "Popraw": 10019,
  "Poprawi": 42326,
  "Poprawka</w>": 12364,
  "Poprawki</w>": 31759,
  "Poprzed": 19311,
  "Poprzedni</w>": 40062,
  "Poprzez</w>": 33814,
  "Popu": 22673,
  "Popular": 25765,
  "Popła": 45650,
  "Por": 5363,
  "Pora": 32632,
  "Pora</w>": 47102,
  "Porad": 34158,
  "Poradni</w>": 43329,
  "Poraż": 29094,
  "Porażka</w>": 37439,
  "Poro": 16838,
  "Poroniec</w>": 39785,
  "Poronin</w>": 38196,
  "Porozumie": 15517,
  "Porozumienia</w>": 30335,
  "Porozumienie</w>": 23542,
  "Port": 29355,
  "Port</w>": 29753,
  "Portal</w>": 38121,
  "Porto</w>": 36900,
  "Portre": 40967,
  "Portu": 13568,
  "Portuga": 15748,
  "Portugal": 38956,
  "Portugalia</w>": 32622,
  "Portugalii</w>": 24327,
  "Poru": 31610,
  "Poruszenie</w>": 40782,
  "Porząd": 42953,
  "Porów": 30797,
  "Porąb": 43904,
  "Porę": 19877,
  "Poręba</w>": 30511,
  "Porębie</w>": 44650,
  "Pos": 6607,
  "Pose": 15021,
  "Posel": 25620,
  "Poseł</w>": 15938,
  "Posiad": 23779,
  "Posiada</w>": 33149,
  "Posie": 39350,
  "Post": 43293,
  "Post</w>": 42576,
  "Posta": 34264,
  "Postanowi": 15313,
  "Postanowiliśmy</w>": 34269,
  "Postanowiłem</w>": 45943,
  "Postawi": 36872,
  "Postać</w>": 49954,
  "Postęp": 23327,
  "Postępowanie</w>": 31162,
  "Poszczególne</w>": 45620,
  "Poszkodow": 26187,
  "Poszkodowany</w>": 44899,
  "Poszu": 38837,
  "Poszuk": 42222,
  "Poszuki": 23590,
  "Poszukuję</w>": 48250,
  "Posł": 39475,
  "Posłowie</w>": 15934,
  "Posłu": 29964,
  "Pot": 5983,
  "Potem</w>": 8285,
  "Poten": 49376,
  "Poto": 14337,
  "Potocki</w>": 41478,
  "Potok</w>": 41236,
  "Potra": 32664,
  "Potrafi": 30674,
  "Potrze": 11218,
  "Potrzeb": 15253,
  "Potrzeba</w>": 30535,
  "Potrzebna</w>": 42016,
  "Potrzebne</w>": 34686,
  "Potwier": 17965,
  "Potwierdza</w>": 46178,
  "Potę": 45764,
  "Pow": 3896,
  "Powa": 27471,
  "Power</w>": 42082,
  "Powi": 4028,
  "Powiat": 4536,
  "Powiat</w>": 15427,
  "Powiatowa</w>": 28519,
  "Powiatowe</w>": 18500,
  "Powiatowego</w>": 10413,
  "Powiatowej</w>": 12190,
  "Powiatowy</w>": 16996,
  "Powiatowych</w>": 42642,
  "Powiatowym</w>": 19540,
  "Powiatu</w>": 10582,
  "Powie": 7851,
  "Powiedz</w>": 46072,
  "Powiedział</w>": 22461,
  "Powiedziałem</w>": 34527,
  "Powiem</w>": 25448,
  "Powierzchnia</w>": 34992,
  "Powietrz": 45178,
  "Powin": 21246,
  "Powinien</w>": 33993,
  "Powinna</w>": 47213,
  "Powinniśmy</w>": 34950,
  "Powinno</w>": 37995,
  "Powo": 16498,
  "Powod": 34208,
  "Powodem</w>": 20769,
  "Powoli</w>": 32764,
  "Powoł": 32745,
  "Powoła": 40409,
  "Powracamy</w>": 35197,
  "Powro": 46647,
  "Powró": 44935,
  "Powrót</w>": 22562,
  "Powsta": 18359,
  "Powstaje</w>": 31839,
  "Powstania</w>": 26515,
  "Powstanie</w>": 22081,
  "Powstał</w>": 30928,
  "Powstała</w>": 32232,
  "Powstało</w>": 48253,
  "Powstały</w>": 44998,
  "Powstańców</w>": 26495,
  "Powszech": 15673,
  "Powszechnego</w>": 42789,
  "Powtarz": 33377,
  "Powtarzam</w>": 44547,
  "Powtó": 49147,
  "Powyż": 30141,
  "Powód</w>": 27725,
  "Poz": 26833,
  "Poza</w>": 5960,
  "Pozdrawiam</w>": 10303,
  "Pozio": 43126,
  "Poziom</w>": 28639,
  "Pozna": 3554,
  "Poznania</w>": 8371,
  "Poznaniu</w>": 5982,
  "Poznań</w>": 6999,
  "Poznańska</w>": 31614,
  "Poznański</w>": 34510,
  "Poznańskie</w>": 48083,
  "Poznańskiego</w>": 36155,
  "Poznańskiej</w>": 22629,
  "Pozost": 11536,
  "Pozosta": 38515,
  "Pozostaje</w>": 25197,
  "Pozostali</w>": 21972,
  "Pozostała</w>": 44832,
  "Pozostałe</w>": 12995,
  "Pozwala</w>": 37689,
  "Pozwo": 23147,
  "Pozwol": 41084,
  "Pozwoli</w>": 41586,
  "Pozwolę</w>": 46313,
  "Pozy": 20944,
  "Pozycja</w>": 48537,
  "Poł": 43745,
  "Poła": 44217,
  "Poło": 31297,
  "Połomski</w>": 47286,
  "Połowa</w>": 41943,
  "Położ": 41566,
  "Położenie</w>": 48472,
  "Połu": 10216,
  "Południ": 11985,
  "Południe</w>": 36694,
  "Południowa</w>": 47504,
  "Południowej</w>": 17991,
  "Połączenie</w>": 46442,
  "Poś": 20313,
  "Poświę": 36036,
  "Pożar": 9986,
  "Pożar</w>": 28840,
  "Pożarna</w>": 41812,
  "Pożarnej</w>": 13347,
  "Pożegna": 30469,
  "Pożegnanie</w>": 40900,
  "Poży": 32035,
  "Pr": 24083,
  "Pra": 2819,
  "Prac": 5934,
  "Prac</w>": 44353,
  "Praca</w>": 13567,
  "Prace</w>": 9867,
  "Pracodawca</w>": 45177,
  "Pracodawców</w>": 47638,
  "Pracow": 7970,
  "Pracował</w>": 31933,
  "Pracowni</w>": 44240,
  "Pracownia</w>": 44393,
  "Pracownicy</w>": 12517,
  "Pracownik</w>": 38047,
  "Pracowników</w>": 38296,
  "Pracuje</w>": 36178,
  "Pracuję</w>": 49574,
  "Pracy</w>": 6459,
  "Pracę</w>": 34099,
  "Pradze</w>": 24718,
  "Prag": 20326,
  "Praga</w>": 35491,
  "Pragi</w>": 34640,
  "Pragnę</w>": 22034,
  "Prak": 23190,
  "Praktycznie</w>": 28250,
  "Prasa</w>": 44627,
  "Praw": 6371,
  "Praw</w>": 15186,
  "Prawa</w>": 11906,
  "Prawda</w>": 23129,
  "Prawdo": 11155,
  "Prawdopodobnie</w>": 11813,
  "Prawdzi": 17092,
  "Prawdziwy</w>": 38422,
  "Prawdę</w>": 45082,
  "Prawie</w>": 13141,
  "Prawo": 27249,
  "Prawo</w>": 9067,
  "Praworządności</w>": 36571,
  "Pre": 3710,
  "Premie": 12423,
  "Premier</w>": 16814,
  "Premiera</w>": 27130,
  "Press</w>": 33575,
  "Preze": 7581,
  "Prezen": 16244,
  "Prezes</w>": 9268,
  "Prezesa</w>": 25763,
  "Prezesem</w>": 47847,
  "Prezyden": 7215,
  "Prezydent</w>": 9391,
  "Prezydenta</w>": 17625,
  "Prezydium</w>": 15636,
  "Pri": 8834,
  "Prin": 35063,
  "Prix</w>": 12265,
  "Pro": 2567,
  "Pro</w>": 24024,
  "Proble": 7598,
  "Problem</w>": 10427,
  "Problemem</w>": 31327,
  "Problemy</w>": 23847,
  "Problemów</w>": 35373,
  "Probo": 39653,
  "Proboszcz</w>": 49577,
  "Proce": 21320,
  "Proces</w>": 18610,
  "Produ": 10863,
  "Producen": 31832,
  "Producenci</w>": 46339,
  "Producent</w>": 39636,
  "Produkcja</w>": 36065,
  "Prof</w>": 15958,
  "Profe": 13493,
  "Profesjona": 42035,
  "Profesor</w>": 19891,
  "Profi": 22544,
  "Profila": 34658,
  "Profilaktyki</w>": 49445,
  "Progno": 38337,
  "Progra": 6873,
  "Program</w>": 9344,
  "Programu</w>": 16435,
  "Programy</w>": 45541,
  "Proje": 7159,
  "Projekt": 25978,
  "Projekt</w>": 8762,
  "Projekty</w>": 46771,
  "Proko": 15710,
  "Prokoci": 46790,
  "Prokocim</w>": 30103,
  "Prokom</w>": 35913,
  "Prokop</w>": 42513,
  "Prokura": 7016,
  "Prokurator</w>": 22038,
  "Prokuratura</w>": 11532,
  "Prokuratury</w>": 15998,
  "Promień</w>": 40610,
  "Promo": 13869,
  "Promocja</w>": 32154,
  "Promocji</w>": 20294,
  "Propon": 14204,
  "Proponowane</w>": 48215,
  "Proponuje</w>": 46638,
  "Proponujemy</w>": 45838,
  "Proponuję</w>": 25961,
  "Propozycja</w>": 27718,
  "Propozycje</w>": 35619,
  "Prosimy</w>": 30132,
  "Prosz": 13601,
  "Proszowi": 27985,
  "Proszowianka</w>": 35773,
  "Proszowianki</w>": 45887,
  "Proszowic</w>": 38231,
  "Proszowicach</w>": 26539,
  "Proszowice</w>": 31693,
  "Proszę</w>": 4139,
  "Prota": 2001,
  "Protasiewicz</w>": 48475,
  "Protest": 39561,
  "Protest</w>": 39806,
  "Proto": 26717,
  "Protokół</w>": 43893,
  "Prow": 33267,
  "Prowa": 9123,
  "Prowadzenie</w>": 34556,
  "Prowadzi</w>": 27586,
  "Prowadzimy</w>": 40823,
  "Prowadził</w>": 45315,
  "Prowadzone</w>": 45179,
  "Prowadzący</w>": 40202,
  "Prowin": 42505,
  "Proś": 47457,
  "Pru": 9255,
  "Prus</w>": 24316,
  "Prusz": 24708,
  "Pruszków</w>": 49314,
  "Pry": 18806,
  "Prywa": 17641,
  "Prze": 2398,
  "Przebieg</w>": 39448,
  "Przebój</w>": 34807,
  "Przechodzimy</w>": 35282,
  "Przeci": 10003,
  "Przecież</w>": 6996,
  "Przeciw": 13676,
  "Przeciw</w>": 36746,
  "Przeciwko</w>": 28653,
  "Przeciwnicy</w>": 48483,
  "Przeciwnie</w>": 38136,
  "Przecię": 34469,
  "Przeczytaj</w>": 28742,
  "Przed": 4577,
  "Przed</w>": 5156,
  "Przede</w>": 10445,
  "Przedmiotem</w>": 45720,
  "Przedsię": 8000,
  "Przedsiębior": 8312,
  "Przedsiębiorcy</w>": 43496,
  "Przedsiębiorczości</w>": 27974,
  "Przedsiębiorstwa</w>": 19153,
  "Przedsiębiorstwo</w>": 17876,
  "Przedstawi": 9003,
  "Przedstawiciel</w>": 44486,
  "Przedstawiciele</w>": 15756,
  "Przedstawienie</w>": 46746,
  "Przedszko": 18862,
  "Przedszkola</w>": 27692,
  "Przedszkole</w>": 31240,
  "Przeglą": 21832,
  "Przegląd</w>": 22464,
  "Przeglądu</w>": 38079,
  "Przej": 21973,
  "Przejście</w>": 48302,
  "Przekona": 28944,
  "Przemek</w>": 20274,
  "Przemy": 5341,
  "Przemysł</w>": 46449,
  "Przemysław</w>": 8784,
  "Przemysława</w>": 35291,
  "Przemysłow": 31671,
  "Przemysłowo</w>": 43422,
  "Przemysłu</w>": 23403,
  "Przemyś": 15530,
  "Przemyśl</w>": 23392,
  "Przemyśla</w>": 31799,
  "Przemyślu</w>": 25745,
  "Przepis</w>": 31699,
  "Przepisy</w>": 19228,
  "Przepraszam</w>": 14374,
  "Przeprowadz": 38899,
  "Przerwa</w>": 37903,
  "Przestrze": 24109,
  "Przestęp": 26933,
  "Przetarg</w>": 33560,
  "Przeważ": 34010,
  "Przewi": 24587,
  "Przewiduje</w>": 42834,
  "Przewod": 10251,
  "Przewodnicz": 13434,
  "Przewodniczący</w>": 17162,
  "Przewor": 35273,
  "Przewoź": 43593,
  "Przez</w>": 4926,
  "Przełom</w>": 42437,
  "Przełę": 20587,
  "Przełęcz</w>": 25873,
  "Przy": 2096,
  "Przy</w>": 5095,
  "Przyby": 11372,
  "Przybyla</w>": 23500,
  "Przybyli</w>": 29457,
  "Przybylski</w>": 46189,
  "Przybyła</w>": 43714,
  "Przybyło</w>": 49919,
  "Przychod": 33124,
  "Przychodzą</w>": 46936,
  "Przycisk</w>": 40081,
  "Przyczy": 19813,
  "Przyczyny</w>": 38593,
  "Przyczyną</w>": 24069,
  "Przygot": 10344,
  "Przygotowania</w>": 33653,
  "Przygotowanie</w>": 38194,
  "Przyj": 21258,
  "Przyja": 11505,
  "Przyjaci": 17809,
  "Przyjaciele</w>": 43335,
  "Przyjaciół</w>": 18602,
  "Przyjechali</w>": 47432,
  "Przyjechał</w>": 48848,
  "Przyjem": 47890,
  "Przyjm": 33574,
  "Przyję": 17140,
  "Przyjęcie</w>": 33414,
  "Przykro</w>": 47965,
  "Przykład": 13427,
  "Przykład</w>": 29425,
  "Przykładem</w>": 24753,
  "Przykładowo</w>": 30718,
  "Przykłady</w>": 41473,
  "Przynajmniej</w>": 26271,
  "Przypad": 45111,
  "Przypo": 20591,
  "Przypom": 24834,
  "Przypomi": 14016,
  "Przypomina": 28345,
  "Przypomina</w>": 38723,
  "Przypominam</w>": 14815,
  "Przypominamy</w>": 34020,
  "Przypomni": 8249,
  "Przypomniał</w>": 42386,
  "Przypomnijmy</w>": 9088,
  "Przypomnę</w>": 26803,
  "Przypuszcz": 43653,
  "Przyrod": 45428,
  "Przyrody</w>": 42020,
  "Przystan": 37377,
  "Przystępujemy</w>": 9679,
  "Przyszedł</w>": 43372,
  "Przyszli</w>": 48939,
  "Przyszł": 28124,
  "Przyszłość</w>": 35934,
  "Przyzna": 17616,
  "Przyznaje</w>": 36160,
  "Przyznaję</w>": 46435,
  "Przyznam</w>": 34530,
  "Przyznał</w>": 39619,
  "Pró": 14315,
  "Prób": 16291,
  "Próba</w>": 38639,
  "Próby</w>": 41110,
  "Prócz</w>": 33281,
  "Prą": 16657,
  "Prąd": 19342,
  "Prądniczanka</w>": 49833,
  "Prądnik</w>": 32779,
  "Prę": 40927,
  "Psy": 14289,
  "Psy</w>": 44818,
  "Psychi": 36197,
  "Psychiat": 49066,
  "Psycho": 18737,
  "Pszczy": 33902,
  "Psze": 11182,
  "Pszemol</w>": 11562,
  "Pta": 19542,
  "Ptak</w>": 27445,
  "Ptasz": 39260,
  "Pu": 3600,
  "Publi": 6787,
  "Publiczna</w>": 33750,
  "Publicznego</w>": 24197,
  "Publicznej</w>": 17515,
  "Publiczność</w>": 35760,
  "Publicznych</w>": 16413,
  "Puch": 7406,
  "Puchar</w>": 8783,
  "Pucharu</w>": 8473,
  "Pucharze</w>": 16141,
  "Pud": 47997,
  "Pul": 26804,
  "Puls</w>": 48777,
  "Pun": 11179,
  "Punkt</w>": 27371,
  "Punkty</w>": 20992,
  "Pur": 36640,
  "Pusty": 45851,
  "Puszcza</w>": 31536,
  "Puszczy</w>": 28061,
  "Put": 21388,
  "Putin</w>": 39218,
  "Putina</w>": 46619,
  "Puł": 23005,
  "Puła": 22895,
  "Pułk</w>": 41793,
  "Pułku</w>": 26690,
  "Py": 5273,
  "Pyr": 25262,
  "Pyréné": 33143,
  "Pyrénées</w>": 33147,
  "Pytam</w>": 30366,
  "Pytania</w>": 31754,
  "Pytanie</w>": 14142,
  "Pytany</w>": 47784,
  "Pyzol</w>": 42941,
  "Pó": 7111,
  "Pój": 47022,
  "Póki</w>": 27444,
  "Pół": 7304,
  "Pół</w>": 25845,
  "Północ": 11986,
  "Północ</w>": 24996,
  "Północna</w>": 46677,
  "Północnej</w>": 20703,
  "Półto": 48160,
  "Póź": 34809,
  "Później</w>": 8201,
  "Pę": 14952,
  "Pł": 27074,
  "Pła": 9025,
  "Płat": 45917,
  "Płd</w>": 41160,
  "Pło": 7959,
  "Płock</w>": 21849,
  "Płocka</w>": 31634,
  "Płocku</w>": 27797,
  "Płomień</w>": 24075,
  "Płon": 28611,
  "Płonka</w>": 46350,
  "Płu": 2247,
  "Pły": 13830,
  "Płyta</w>": 38341,
  "PŚ</w>": 23310,
  "Q": 53,
  "Q</w>": 1092,
  "Qa</w>": 48916,
  "Qrczak</w>": 17068,
  "Qu": 8571,
  "Qua": 45368,
  "Que": 28746,
  "Quentin</w>": 17747,
  "R": 54,
  "R</w>": 1084,
  "RA": 3864,
  "RA</w>": 11196,
  "RACJA</w>": 38520,
  "RAK": 21854,
  "RAL": 46122,
  "RAV</w>": 45169,
  "RC</w>": 27599,
  "RD</w>": 14573,
  "RE": 5597,
  "RE</w>": 37978,
  "RED</w>": 42361,
  "REGI": 43695,
  "REK</w>": 27569,
  "REMON": 42839,
  "REMONTY</w>": 43281,
  "REST": 38979,
  "RESTAU": 39736,
  "RESTAURACJA</w>": 40991,
  "RFN</w>": 31014,
  "RG</w>": 34145,
  "RI": 19475,
  "RIO</w>": 44554,
  "RKM</w>": 39173,
  "RKS</w>": 23723,
  "RL</w>": 28779,
  "RM</w>": 25376,
  "RMF</w>": 37404,
  "RO": 4240,
  "RO</w>": 42342,
  "ROM</w>": 37725,
  "RON</w>": 29733,
  "ROW": 19268,
  "ROZ": 26895,
  "RP</w>": 7274,
  "RPA</w>": 28862,
  "RR</w>": 10938,
  "RS</w>": 19295,
  "RT": 24028,
  "RT</w>": 15782,
  "RTV</w>": 36565,
  "RU": 6575,
  "RUCZAJ</w>": 36815,
  "RUDNI": 17659,
  "RUM</w>": 20394,
  "RW": 42011,
  "RY": 8144,
  "RY</w>": 18505,
  "RZ": 3734,
  "RZ</w>": 17639,
  "RZA</w>": 32572,
  "RZE": 5172,
  "RZE</w>": 23540,
  "RZY": 8133,
  "RZY</w>": 24877,
  "RZÓW</w>": 45050,
  "RZĄ": 28272,
  "RZĘ": 40144,
  "Ra": 2710,
  "Rab": 10759,
  "Raba</w>": 27430,
  "Rabce</w>": 23508,
  "Rabka</w>": 24025,
  "Rabki</w>": 29586,
  "Raby</w>": 39279,
  "Rach": 17559,
  "Rachun": 43306,
  "Rachwał</w>": 44981,
  "Raci": 9575,
  "Racibo": 14760,
  "Racibor": 23279,
  "Raciborza</w>": 30285,
  "Raciborzu</w>": 20250,
  "Racibórz</w>": 31450,
  "Raczej</w>": 24727,
  "Racła": 27198,
  "Rad": 2717,
  "Rada</w>": 6537,
  "Radek</w>": 27863,
  "Radi": 8899,
  "Radia</w>": 14027,
  "Radio": 19994,
  "Radio</w>": 14846,
  "Radiofonii</w>": 22499,
  "Radiu</w>": 36493,
  "Radko</w>": 24824,
  "Radni</w>": 10211,
  "Radny</w>": 21296,
  "Rado": 8356,
  "Radom": 11234,
  "Radom</w>": 18719,
  "Radomi": 11624,
  "Radomia": 41704,
  "Radomia</w>": 23487,
  "Radomiak</w>": 46267,
  "Radomiu</w>": 17114,
  "Radomska</w>": 32494,
  "Radomsko</w>": 30051,
  "Radomsku</w>": 25811,
  "Rados": 46672,
  "Radosła": 11313,
  "Radosław</w>": 12939,
  "Radosława</w>": 39465,
  "Radość</w>": 30580,
  "Radwa": 23441,
  "Radwan</w>": 40707,
  "Radwański</w>": 39539,
  "Rady</w>": 4051,
  "Radzi": 12969,
  "Radzie": 15184,
  "Radzie</w>": 14518,
  "Radzieckiego</w>": 32753,
  "Radzion": 37680,
  "Radziwi": 33374,
  "Radziwił": 34559,
  "Radzy": 42734,
  "Radą</w>": 40854,
  "Radę</w>": 15859,
  "Raf": 5490,
  "Rafa": 28105,
  "Rafal</w>": 32871,
  "Rafał</w>": 6229,
  "Rafała</w>": 18922,
  "Rafine": 24105,
  "Rafineria</w>": 40053,
  "Rafinerii</w>": 42612,
  "Rai": 24663,
  "Raj": 9505,
  "Rajd</w>": 26118,
  "Rajdu</w>": 44248,
  "Rak</w>": 31211,
  "Rako": 38009,
  "Rakowi": 34433,
  "Ral": 39748,
  "Ram": 29544,
  "Ran": 14087,
  "Rangers</w>": 40468,
  "Rano</w>": 27131,
  "Rap": 37239,
  "Rapa": 36079,
  "Rapacz</w>": 41770,
  "Raport</w>": 29462,
  "Rashid</w>": 40619,
  "Rat": 12798,
  "Rata": 47932,
  "Rataj": 27234,
  "Ratow": 17330,
  "Ratownicy</w>": 44503,
  "Ratowniczo</w>": 36830,
  "Ratu": 12094,
  "Ratun": 22861,
  "Ratunkowego</w>": 29492,
  "Ratusz</w>": 38290,
  "Raven</w>": 45039,
  "Rawi": 37141,
  "Rawicz</w>": 39878,
  "Rawiczu</w>": 42757,
  "Ray": 43013,
  "Raz</w>": 15990,
  "Razem</w>": 13339,
  "Re": 2566,
  "Re</w>": 4100,
  "Rea": 24167,
  "Real</w>": 20171,
  "Reali": 22009,
  "Realizacja</w>": 35183,
  "Realu</w>": 35702,
  "Reasumując</w>": 45995,
  "Recor": 35756,
  "Records</w>": 40901,
  "Red": 36601,
  "Red</w>": 23472,
  "Reda": 20516,
  "Redakcja</w>": 41998,
  "Redart</w>": 39740,
  "Refe": 35733,
  "Referen": 39852,
  "Reforma</w>": 46457,
  "Reg": 20981,
  "Regi": 6504,
  "Regina</w>": 38780,
  "Region</w>": 32524,
  "Regiona": 8160,
  "Regionalna</w>": 44495,
  "Regionalne</w>": 31968,
  "Regionalnego</w>": 15736,
  "Regionalnej</w>": 23097,
  "Regionalny</w>": 39413,
  "Regionalnych</w>": 47179,
  "Regionalnym</w>": 48889,
  "Regionu</w>": 31020,
  "Regu": 11529,
  "Regul": 41918,
  "Regula": 15161,
  "Regulami": 43124,
  "Regulamin</w>": 40915,
  "Regulaminu</w>": 23552,
  "Rehabili": 21620,
  "Rehabilitacji</w>": 28255,
  "Rei": 18807,
  "Rei</w>": 46926,
  "Rein": 43965,
  "Reiss</w>": 45914,
  "Rej": 7477,
  "Reje": 46388,
  "Rejest": 27666,
  "Rejon": 8695,
  "Rejon</w>": 45025,
  "Rejonowa</w>": 30188,
  "Rejonowego</w>": 20362,
  "Rejonowej</w>": 26946,
  "Rejonowy</w>": 21017,
  "Rejonowym</w>": 32603,
  "Rekla": 30109,
  "Rekor": 19235,
  "Rekord</w>": 40104,
  "Rekreacji</w>": 17844,
  "Rektor</w>": 49395,
  "Rela": 30926,
  "Reli": 29998,
  "Religi": 48282,
  "Rem": 34999,
  "Remi": 20677,
  "Remigiusz</w>": 47973,
  "Remis</w>": 39610,
  "Remon": 27432,
  "Remont</w>": 20708,
  "Remonty</w>": 49282,
  "Remp": 26760,
  "Rempała</w>": 31150,
  "Ren": 14498,
  "Rena": 9705,
  "Renata</w>": 14177,
  "Renault</w>": 24660,
  "Reprezent": 26096,
  "Reprezentacja</w>": 33591,
  "Republi": 11686,
  "Republice</w>": 46761,
  "Republika</w>": 38645,
  "Republiki</w>": 19911,
  "Reso": 13571,
  "Resort</w>": 45071,
  "Resovia</w>": 21437,
  "Resovii</w>": 26985,
  "Resta": 34305,
  "Restaura": 37556,
  "Restauracja</w>": 49198,
  "Restruktury": 24000,
  "Restrukturyzacji</w>": 26502,
  "Resz": 15635,
  "Reszta</w>": 22004,
  "Resztę</w>": 35927,
  "Rewi": 27754,
  "Rewizyjnej</w>": 47940,
  "Rewolu": 28484,
  "Rey": 18907,
  "Reymon": 25950,
  "Reymonta</w>": 27489,
  "Rez": 40534,
  "Rezer": 23674,
  "Rezerwat</w>": 49254,
  "Rezerwy</w>": 49978,
  "Rezulta": 46205,
  "Reży": 23686,
  "Reżyser</w>": 43262,
  "Ri": 6242,
  "Rich": 45941,
  "Richar": 18547,
  "Richard</w>": 28488,
  "Rickard": 34370,
  "Rickardsson</w>": 43445,
  "Rie": 38985,
  "Rin": 43314,
  "Rio</w>": 38690,
  "Ro": 2503,
  "Rob": 3592,
  "Roba": 37745,
  "Robak": 17265,
  "Robak</w>": 10109,
  "Robakks</w>": 17345,
  "Robbot</w>": 44137,
  "Rober": 4598,
  "Robert</w>": 5259,
  "Roberta</w>": 13648,
  "Robertem</w>": 42314,
  "Roberto</w>": 41121,
  "Robi": 40593,
  "Robi</w>": 47198,
  "Robimy</w>": 47274,
  "Robin": 46364,
  "Robot": 22518,
  "Roboty</w>": 36218,
  "Robson</w>": 42598,
  "Roc": 49876,
  "Rock</w>": 33117,
  "Rocznie</w>": 45239,
  "Rocznik</w>": 37815,
  "Rod": 12649,
  "Rodan</w>": 37562,
  "Rodri": 47971,
  "Rodz": 36209,
  "Rodzi": 5693,
  "Rodzice</w>": 14312,
  "Rodziców</w>": 35795,
  "Rodzin</w>": 19185,
  "Rodzina</w>": 15302,
  "Rodzinie</w>": 23447,
  "Rodzinny</w>": 48444,
  "Rodziny</w>": 19452,
  "Rog": 8592,
  "Roger</w>": 29286,
  "Rogo": 31081,
  "Rojek</w>": 49119,
  "Rok</w>": 10295,
  "Roki": 11885,
  "Rokita</w>": 17293,
  "Roku</w>": 13668,
  "Rol": 5604,
  "Rola</w>": 35440,
  "Roland</w>": 49545,
  "Rolnego</w>": 30866,
  "Rolnej</w>": 30951,
  "Rolnictwa</w>": 13784,
  "Rolnicy</w>": 26461,
  "Rolniczego</w>": 28652,
  "Rolniczej</w>": 29053,
  "Rolniczych</w>": 31423,
  "Rolnik</w>": 45146,
  "Roma": 30185,
  "Roma</w>": 31004,
  "Roman": 16179,
  "Roman</w>": 6829,
  "Romana</w>": 16089,
  "Rome": 39805,
  "Romu": 17574,
  "Romual": 19206,
  "Romuald</w>": 22606,
  "Romów</w>": 41309,
  "Ron": 23693,
  "Rona": 19385,
  "Ronald</w>": 45915,
  "Ronaldo</w>": 37485,
  "Rondo</w>": 48763,
  "Roo": 33700,
  "Roo72</w>": 43827,
  "Roosevel": 43109,
  "Rop": 26778,
  "Ropczyce</w>": 41037,
  "Ros": 3828,
  "Rosen": 36757,
  "Rosie": 45801,
  "Rosj": 40522,
  "Rosja": 10119,
  "Rosja</w>": 10799,
  "Rosjan": 44406,
  "Rosjan</w>": 22395,
  "Rosjanie</w>": 16862,
  "Rosjanin</w>": 40153,
  "Rosji</w>": 7348,
  "Rosją</w>": 21256,
  "Rosję</w>": 35283,
  "Rossa</w>": 17859,
  "Rosyj": 21202,
  "Rosyjskiej</w>": 42317,
  "Rot": 16220,
  "Rotter": 43248,
  "Rou": 43479,
  "Row": 25093,
  "Rowe": 30247,
  "Rower": 46258,
  "Roy": 28564,
  "Royal</w>": 35493,
  "Roz": 3034,
  "Roza": 48986,
  "Rozdział</w>": 18070,
  "Roze": 25682,
  "Rozgry": 32563,
  "Rozgrywki</w>": 39792,
  "Rozma": 21925,
  "Rozmawi": 10414,
  "Rozmawiamy</w>": 35151,
  "Rozmawiał</w>": 16545,
  "Rozmawiała</w>": 25320,
  "Rozmawiałem</w>": 44034,
  "Rozmowa</w>": 10651,
  "Rozmowy</w>": 22799,
  "Rozpo": 11493,
  "Rozpoczął</w>": 40031,
  "Rozpoczę": 17826,
  "Rozporządzenie</w>": 31519,
  "Rozry": 44942,
  "Rozstrzy": 30836,
  "Rozto": 41047,
  "Rozu": 12335,
  "Rozumiem</w>": 14973,
  "Rozważ": 33038,
  "Rozwi": 38227,
  "Rozwiąza": 23427,
  "Rozwiązanie</w>": 35040,
  "Rozwiązywania</w>": 43019,
  "Rozwoju</w>": 9114,
  "Rozwój</w>": 24335,
  "Roś": 25480,
  "Rośnie</w>": 42037,
  "Roż": 27604,
  "Ru": 3712,
  "Ruch": 9725,
  "Ruch</w>": 11121,
  "Ruchem</w>": 42256,
  "Ruchu</w>": 11518,
  "Ruczaj</w>": 36843,
  "Rud": 15655,
  "Ruda</w>": 26129,
  "Rudnik</w>": 40958,
  "Rudolf</w>": 38764,
  "Rudy</w>": 28765,
  "Rudzie</w>": 35249,
  "Rudziński</w>": 34277,
  "Rumi</w>": 38407,
  "Rumian</w>": 40242,
  "Rumu": 13343,
  "Rumunia</w>": 34831,
  "Rumunii</w>": 22737,
  "Run": 35045,
  "Rusi": 41776,
  "Rusin</w>": 40440,
  "Rut": 15151,
  "Rutkowski</w>": 25396,
  "Ry": 2946,
  "Ryb": 8600,
  "Ryba": 27928,
  "Rybak</w>": 41560,
  "Rybnik</w>": 20463,
  "Rybnika</w>": 25677,
  "Rybniku</w>": 22166,
  "Rycer": 36572,
  "Rych": 28070,
  "Rydzy": 26080,
  "Rygli": 45009,
  "Ryn": 33991,
  "Rynek</w>": 11041,
  "Rynku</w>": 7806,
  "Rys</w>": 49114,
  "Ryszar": 5170,
  "Ryszard</w>": 6049,
  "Ryszarda</w>": 13022,
  "Ryszardem</w>": 47696,
  "Rywale</w>": 43775,
  "Rywali": 32307,
  "Rywalizacja</w>": 38578,
  "Rywin</w>": 38236,
  "Rywina</w>": 27681,
  "Ryzy": 42275,
  "Ryś</w>": 43153,
  "Rz": 7004,
  "Rz</w>": 45606,
  "Rzad": 27356,
  "Rzadko</w>": 33458,
  "Rze": 2064,
  "Rzecz": 8272,
  "Rzecz</w>": 16352,
  "Rzecznik</w>": 17359,
  "Rzecznika</w>": 31032,
  "Rzeczpospoli": 18888,
  "Rzeczpospolita</w>": 22724,
  "Rzeczpospolitej</w>": 20690,
  "Rzeczpospolitą</w>": 48494,
  "Rzeczy": 7308,
  "Rzeczypospolitej</w>": 7452,
  "Rzeczywist": 47703,
  "Rzeczywiście</w>": 14168,
  "Rzemieśl": 25143,
  "Rzemieślnik</w>": 42814,
  "Rzemios": 37892,
  "Rzepka</w>": 49532,
  "Rzesz": 5995,
  "Rzeszowa</w>": 15849,
  "Rzeszowie</w>": 12270,
  "Rzeszy</w>": 23211,
  "Rzeszów</w>": 11245,
  "Rzeza": 49870,
  "Rzeź": 24766,
  "Rzu": 21048,
  "Rzy": 9017,
  "Rzym</w>": 31346,
  "Rzymie</w>": 18072,
  "Rzymu</w>": 19486,
  "Rzą": 13373,
  "Rząd</w>": 12138,
  "Rządu</w>": 31807,
  "Rzędzi": 37160,
  "RÓ": 17488,
  "RÓJ</w>": 49820,
  "RÓW</w>": 44638,
  "RÓŻ": 46585,
  "Ró": 5651,
  "Róg</w>": 45948,
  "Rów": 6534,
  "Równie</w>": 23592,
  "Również</w>": 9189,
  "Równo": 18403,
  "Równocześnie</w>": 23513,
  "Równolegle</w>": 47047,
  "Róż": 13066,
  "Róża": 22059,
  "Róża</w>": 36781,
  "Różański</w>": 33597,
  "Różne</w>": 37392,
  "Różnica</w>": 32642,
  "Różnice</w>": 45116,
  "Róży": 37346,
  "Rą": 26518,
  "RĘ": 47086,
  "Rę": 8014,
  "S": 55,
  "S</w>": 1069,
  "SA": 9016,
  "SA</w>": 3557,
  "SAD": 49879,
  "SAL": 23012,
  "SALA</w>": 41282,
  "SAMO": 35478,
  "SAPAR": 32003,
  "SAPARD</w>": 32693,
  "SAS</w>": 24391,
  "SB</w>": 16327,
  "SC</w>": 29029,
  "SCO</w>": 31295,
  "SD": 18683,
  "SD</w>": 30106,
  "SDU</w>": 27705,
  "SE": 10782,
  "SE</w>": 24790,
  "SER": 32772,
  "SF</w>": 44148,
  "SG": 41734,
  "SG</w>": 36817,
  "SI": 7458,
  "SI</w>": 29814,
  "SIA</w>": 35137,
  "SIE": 18422,
  "SIE</w>": 41721,
  "SIK</w>": 42249,
  "SIĘ</w>": 33283,
  "SK": 3463,
  "SK</w>": 19274,
  "SKA": 21085,
  "SKA</w>": 6449,
  "SKASU": 23001,
  "SKASUJ</w>": 23393,
  "SKI": 27544,
  "SKI</w>": 6042,
  "SKIE": 15735,
  "SKIE</w>": 16473,
  "SKIEGO</w>": 20447,
  "SKIEJ</w>": 38730,
  "SKL</w>": 47218,
  "SKO": 37150,
  "SKO</w>": 19854,
  "SKOK</w>": 47506,
  "SKS</w>": 47988,
  "SL</w>": 43431,
  "SLD</w>": 5706,
  "SM</w>": 12635,
  "SMO": 41326,
  "SMS</w>": 12349,
  "SN</w>": 36773,
  "SO": 8046,
  "SO</w>": 27164,
  "SON</w>": 29110,
  "SOS</w>": 45453,
  "SP": 16338,
  "SP</w>": 4009,
  "SPA": 9940,
  "SPAM": 42042,
  "SPAM</w>": 11638,
  "SPO": 13447,
  "SPORT</w>": 20525,
  "SPRZE": 14776,
  "SPRZEDAM</w>": 16199,
  "SR</w>": 25214,
  "SS": 35233,
  "SS</w>": 15858,
  "SSA</w>": 33652,
  "ST": 3834,
  "ST</w>": 4428,
  "STA": 16271,
  "STAN": 41444,
  "STAR": 20192,
  "STE": 25056,
  "STI": 40797,
  "STK</w>": 46776,
  "STM</w>": 30991,
  "STO": 17395,
  "STOL": 42793,
  "STOLAR": 47303,
  "STRA": 26202,
  "STRO": 49057,
  "STRZ</w>": 47873,
  "STRZE": 30244,
  "STS</w>": 38905,
  "STU": 30325,
  "STWO</w>": 19013,
  "STY": 18554,
  "SU": 11029,
  "SU</w>": 39008,
  "SV</w>": 30727,
  "SW</w>": 23044,
  "SWP</w>": 35667,
  "SY": 18792,
  "SY</w>": 27649,
  "SZ": 3897,
  "SZ</w>": 5972,
  "SZA": 36658,
  "SZA</w>": 25802,
  "SZCZ": 31108,
  "SZCZE": 33098,
  "SZE": 16123,
  "SZE</w>": 43442,
  "SZEL</w>": 49323,
  "SZK": 42051,
  "SZKA</w>": 28941,
  "SZKO": 30729,
  "SZOWICE</w>": 39427,
  "SZTO": 31866,
  "SZTU": 38254,
  "SZU": 17857,
  "SZY": 14615,
  "SZÓW</w>": 43410,
  "Sa": 2954,
  "Sabina</w>": 32577,
  "Sach": 49827,
  "Sad": 10849,
  "Sadowski</w>": 35581,
  "Saint</w>": 15717,
  "Saj": 37500,
  "Sak": 36033,
  "Sakra": 37561,
  "Sakso": 46048,
  "Sal": 7516,
  "Sala": 27695,
  "Sala</w>": 23106,
  "Salamon</w>": 46179,
  "Sali</w>": 31719,
  "Salo": 25657,
  "Salon</w>": 37356,
  "Salt</w>": 38791,
  "Salwa": 38558,
  "Sam": 14670,
  "Sam</w>": 4724,
  "Sama</w>": 17234,
  "Same</w>": 38734,
  "Sami</w>": 20826,
  "Samo": 4687,
  "Samo</w>": 31319,
  "Samochod": 23157,
  "Samochody</w>": 34222,
  "Samochód</w>": 19614,
  "Samodziel": 29537,
  "Samolot</w>": 47685,
  "Samoobrona</w>": 20389,
  "Samoobrony</w>": 15920,
  "Samorząd</w>": 24464,
  "Samorządow": 13145,
  "Samorządowcy</w>": 33358,
  "Samorządowe</w>": 44945,
  "Samorządowego</w>": 34938,
  "Samorządu</w>": 22264,
  "Samorządy</w>": 48712,
  "Samu": 30237,
  "Samuel</w>": 47135,
  "San": 4694,
  "San</w>": 12599,
  "Sanc": 26279,
  "Sanctum</w>": 28753,
  "Sand": 36229,
  "Sande": 10546,
  "Sandecja</w>": 16904,
  "Sandecji</w>": 18961,
  "Sando": 20613,
  "Sandomier": 47315,
  "Sandra</w>": 38138,
  "Sanepi": 31870,
  "Sanepid</w>": 46963,
  "Sanitar": 24779,
  "Sanitarno</w>": 41639,
  "Sankt</w>": 47551,
  "Sanktuarium</w>": 36123,
  "Sano": 19064,
  "Sanok</w>": 20851,
  "Sanoka</w>": 46893,
  "Sanoku</w>": 36462,
  "Santa</w>": 38870,
  "Sanvean</w>": 38211,
  "Sap": 48684,
  "Sapie": 42429,
  "Sar": 11070,
  "Sara": 19541,
  "Sas</w>": 47913,
  "Sat</w>": 16370,
  "Satur": 41922,
  "Sau": 21739,
  "Saudyj": 43950,
  "Saulo</w>": 44858,
  "Sawicki</w>": 35056,
  "Sc": 14398,
  "Sce": 29035,
  "Scena</w>": 23138,
  "Scenari": 36600,
  "Scenariusz</w>": 39899,
  "Sch": 6719,
  "Scha": 36383,
  "Schal": 32089,
  "Schalke</w>": 33839,
  "Sche": 25204,
  "Schen": 49464,
  "Schi": 43597,
  "Schmi": 29630,
  "Scho": 20490,
  "School</w>": 38941,
  "Schroni": 37177,
  "Schu": 32457,
  "Schul": 40920,
  "Schuma": 40065,
  "Scot": 26568,
  "Scott</w>": 40537,
  "Sd": 27075,
  "SdRP</w>": 37962,
  "Se": 2596,
  "Seat": 44234,
  "Seattle</w>": 45013,
  "Seba": 8458,
  "Sebastian</w>": 10042,
  "Sebastiana</w>": 26640,
  "Sej": 3613,
  "Sejm": 22120,
  "Sejm</w>": 5659,
  "Sejmie</w>": 8008,
  "Sejmiku</w>": 31121,
  "Sejmowi</w>": 34975,
  "Sejmu</w>": 5853,
  "Sekcja</w>": 33671,
  "Sekcji</w>": 25902,
  "Sekre": 20783,
  "Sekretarz</w>": 36074,
  "Sekuła</w>": 47139,
  "Sel": 29671,
  "Semina": 28457,
  "Seminarium</w>": 30560,
  "Sen": 13284,
  "Sen</w>": 42882,
  "Sena": 4583,
  "Senacie</w>": 19145,
  "Senat</w>": 9609,
  "Senator</w>": 21637,
  "Senatorowie</w>": 23834,
  "Senatorze</w>": 13565,
  "Senatu</w>": 6331,
  "Sendzi": 45448,
  "Seniorów</w>": 29354,
  "Sensa": 49514,
  "Sep</w>": 19102,
  "Ser": 5376,
  "Serafi": 28010,
  "Serafin</w>": 33302,
  "Serbia</w>": 37806,
  "Serbii</w>": 32037,
  "Serbowie</w>": 44628,
  "Serbów</w>": 40846,
  "Serca</w>": 30333,
  "Serce</w>": 30423,
  "Serde": 31660,
  "Serdecznie</w>": 37707,
  "Serdyński</w>": 47576,
  "Sere": 47667,
  "Seria</w>": 38978,
  "Serie</w>": 42303,
  "Service</w>": 39608,
  "Serwi": 24271,
  "Serwis</w>": 30448,
  "Sesja</w>": 34323,
  "Seva</w>": 39618,
  "Sewery": 21116,
  "Seweryn</w>": 26872,
  "Sezon</w>": 25555,
  "Sh": 16601,
  "Sha": 21989,
  "Shar": 45657,
  "She": 26407,
  "Sher": 44149,
  "Shi": 27501,
  "Sho": 24716,
  "Show</w>": 39100,
  "Si": 3379,
  "SiR</w>": 10555,
  "Siar": 36799,
  "Siarka</w>": 22713,
  "Siarki</w>": 37135,
  "Siat": 15553,
  "Siatkówki</w>": 46093,
  "Sidor</w>": 18933,
  "Sie": 3924,
  "SieBot</w>": 43228,
  "Sieci</w>": 30981,
  "Sied": 11023,
  "Siedem</w>": 31388,
  "Siedl": 30916,
  "Siedlcach</w>": 37300,
  "Siedlce</w>": 45935,
  "Siedlec</w>": 42729,
  "Siedzi": 28699,
  "Siedziba</w>": 37783,
  "Siemi": 35463,
  "Siemia": 43353,
  "Siemian": 30883,
  "Sien": 13669,
  "Sienkiewicz</w>": 34912,
  "Sienkiewicza</w>": 20351,
  "Siepraw</w>": 41402,
  "Sier": 12783,
  "Siera": 19551,
  "Sieradz": 29488,
  "Sieradzu</w>": 42108,
  "Siergiej</w>": 39604,
  "Siero": 40452,
  "Sierp": 37490,
  "Siersza</w>": 35107,
  "Sieć</w>": 37522,
  "Siko": 13523,
  "Sikor": 13984,
  "Sikora</w>": 15382,
  "Sikorski</w>": 26951,
  "Sikorskiego</w>": 25496,
  "Sil": 12446,
  "Sile": 37545,
  "Silesia</w>": 48801,
  "Sim": 30789,
  "Simon</w>": 42967,
  "Sin": 22370,
  "Sing": 38785,
  "Siostra</w>": 41167,
  "Siostry</w>": 46795,
  "Sir</w>": 49222,
  "Siu": 44934,
  "Sió": 35963,
  "Siód": 46136,
  "Się": 37661,
  "Sił</w>": 33299,
  "Siła</w>": 35042,
  "Siły</w>": 46111,
  "Sk": 5029,
  "Sk</w>": 35340,
  "Ska": 6097,
  "Skal": 31656,
  "Skalnik</w>": 41360,
  "Skan": 18300,
  "Skandyna": 32396,
  "Skandynawii</w>": 48527,
  "Skar": 6248,
  "Skarb": 15357,
  "Skarb</w>": 26243,
  "Skarbowego</w>": 40688,
  "Skarbowej</w>": 48371,
  "Skarbu</w>": 12057,
  "Skarży": 30496,
  "Skawa</w>": 24315,
  "Skawina</w>": 25600,
  "Skawinie</w>": 34378,
  "Skawinka</w>": 38125,
  "Skawiny</w>": 43890,
  "Skawy</w>": 41251,
  "Skaza": 39574,
  "Skał": 36636,
  "Skała</w>": 40828,
  "Ski": 18639,
  "Skiba</w>": 32908,
  "Skier": 22129,
  "Skiernie": 26841,
  "Skierniewice</w>": 48268,
  "Sklep</w>": 46826,
  "Sko": 7414,
  "Skoczy": 49687,
  "Skok</w>": 46596,
  "Skor": 10966,
  "Skoro</w>": 12316,
  "Skoru": 43209,
  "Skot": 31893,
  "Skow": 17939,
  "Skowro": 22414,
  "Skoń": 26542,
  "Skra": 39858,
  "Skra</w>": 30664,
  "Skro": 31950,
  "Skrzy": 9213,
  "Skrzyp": 32895,
  "Skrzypek</w>": 32768,
  "Sku": 11022,
  "Skupień</w>": 37659,
  "Skute": 29481,
  "Skutki</w>": 42637,
  "Skwar": 41895,
  "Sky": 35195,
  "Sky</w>": 14562,
  "Skó": 32053,
  "Skór": 31333,
  "Skąd</w>": 13232,
  "Skład": 14081,
  "Skład</w>": 21023,
  "Składa</w>": 46476,
  "Skłod": 37240,
  "Skłodowskiej</w>": 42310,
  "Sla": 15679,
  "Slawek</w>": 34874,
[...]
